[PAD]
[UNK]
[CLS]
[SEP]
[MASK]
##>
<
##hashtag
##user
</
##url
!
di
e
a
che
il
la
##number
non
?
è
per
anche
in
un
della

l
ma
mi
i
grazie
tutti
alla
con
si
sono
una
tutto
le
ho
se
fare
io
da
ti
bene
fatto
italia
lo
del
ancora
ha
ci
al
più
##happy
come
vita
dopo
quanto
tu
amore
me
roma
mia
hai
gli
su
c
te
solo
sei
mio
o
cosa
no
ora
questo
sempre
scuola
fa
poi
dei
milano
android
oggi
perché
quando
tuo
via
d
nel
chi
games
game
insight
forza
prima
va
così
mai
ne
sto
x
hanno
so
voglio
questa
/
raccolto
essere
vi
dell
anni
preso
ad
##a
delle
ciao
siamo
sta
quello
noi
rt
nella
fine
sul
giorno
foto
cibo
all
##e
domani
due
tanto
controllato
orticello
cazzo
mille
alle
tra
tempo
devo
dal
voi
bella
era
##o
##i
casa
già
uno
grande
ed
molto
senza
amo
buona
ipad
qui
meglio
li
s
tua
dai
cita
rispondi
puoi
male
piace
sia
ai
loro
lui
##heart
😂
video
po
anno
niente
buon
bello
stato
cose
comunque
può
mondo
andare
dire
posso
##wink
♥
perchè
troppo
##laugh
buongiorno
ogni
##sad
nuovo
giornata
serie
parte
volta
visto
tutta
altro
seguo
quella
lei
é
però
abbiamo
sarà
giorni
fai
proprio
de
m
vedere
ecco
davvero
detto
dalla
lavoro
ce
gente
quindi
sera
adesso
sua
vero
amici
persone
cui
faccio
seguimi
miei
ore
lol
napoli
dove
sulla
notte
renzi
ok
vorrei
tutte
suo
scarica
contro
cuore
iphone
ieri
altri
vuoi
fanno
##s
nessuno
siete
allora
storia
ragazzi
juve
qualcosa
quel
twitter
degli
😍
quelli
qualcuno
appena
primo
secondo
credo
news
vado
aver
sai
fino
it
mamma
sa
merda
nulla
forse
eh
calcio
pure
basta
the
meno
settimana
poco
aw
vuole
nn
avete
stasera
avere
spero
tweet
auguri
dice
insieme
deve
dio
tipo
ah
volte
fuori
penso
nuova
##no
tv
capito
nei
😘
persona
tre
domenica
💕
film
qualche
nostra
sarebbe
invece
vedo
letto
musica
stesso
milan
stai
questi
stata
ahahah
app
natale
ciò
##time
pd
voglia
sì
##percent
felice
u
stare
far
scusa
bisogno
harry
certo
♡
uomo
sembra
quasi
migliore
faccia
almeno
odio
donna
nell
euro
nostro
guarda
serata
to
one
momento
sabato
posto
festa
ahah
profilo
follow
altra
amica
inter
dall
san
none
parlare
sotto
lazio
dico
caso
testa
avevo
sento
importante
ero
città
😊
stanno
col
parole
prego
giro
capire
porta
quest
sapere
b
isola
n
politica
paura
mentre
ragazza
subito
periodo
magari
fosse
partita
italy
potresti
scoprirlo
quelle
tanti
concerto
viene
set
paese
italiano
oddio
oh
canzone
manca
sole
culo
unica
parla
devi
dato
vinci
occhi
nelle
live
tuoi
fate
t
modo
vai
sui
schifo
fantastica
berlusconi
##date
stessa
juventus
libro
piu
minuti
mesi
inizio
nome
favore
dalle
ormai
piazza
on
mano
##re
forte
resto
bel
soldi
europa
buonanotte
mattina
😭
finalmente
madre
giusto
famiglia
scritto
senso
arriva
italiani
pare
legge
ultimo
facebook
oltre
piacere
donne
governo
agli
punto
voce
volevo
problema
love
dolce
radio
torna
cosi
prova
sport
mare
nemmeno
ragione
pensare
sogno
andata
presidente
queste
##ta
p
morte
davanti
leggere
sulle
ricordo
mezzo
bellissima
icon
link
pomeriggio
terra
##te
fan
pagina
capisco
verso
quale
##annoyed
ragazzo
sanremo
avanti
riesco
dentro
son
sola
bellissimo
expo
segui
classe
presto
dicono
neanche
torino
stagione
mie
possibile
##ti
cioè
##gamene
colpa
suoi
finito
##la
veramente
squadra
qua
ahaha
ricambio
prendere
beh
italiana
belle
nostri
vieni
altre
rai
pensa
speriamo
fra
sky
facendo
abbia
of
cerca
finale
sorride
direction
zayn
dare
vivere
amico
compleanno
erano
studiare
sorriso
tour
vale
facciamo
rallegra
capelli
r
adoro
conto
voto
avrei
indigeni
h
successo
sacco
maggio
vogliamo
idea
infatti
unico
bio
mettere
at
mese
fatta
mercato
louis
pensi
you
peggio
ultima
f
##to
re
gruppo
gol
leggi
dobbiamo
bisogna
dormire
notizie
sentire
grandi
post
cara
ridere
strada
centro
ragazze
seconda
domanda
tesoro
allo
estate
passa
problemi
justin
morire
messo
uomini
padre
aveva
tante
possono
quotidiano
ex
camera
sull
aww
dello
state
arte
quei
ahahahah
caro
prof
vista
boh
complimenti
##n
g
lì
possiamo
futuro
as
venire
diretta
🌸
puntata
usa
cambiare
compiti
crisi
auto
fortuna
avuto
vedi
fatti
ride
gratis
tornare
palle
marco
chat
farmi
continua
we
ke
realtà
perfetto
serve
potete
libri
vede
vanno
nick
chiedo
aiuto
okay
lunedì
prossima
stiamo
scrivere
campo
belli
perso
dovrei
😉
rossi
vicino
dovrebbe
dici
piangere
potrebbe
nazionale
niall
pace
is
sogni
day
ricerca
##r
corriere
passato
social
gioco
inglese
stati
abbraccio
piano
hahaha
trovare
super
bellezza
inizia
instagram
papa
purtroppo
rispetto
bambini
esiste
rido
difficile
migliori
francesco
studio
vogliono
parola
telefono
repubblica
giuro
vs
quanti
numero
bologna
com
coppa
corso
cultura
vincere
viaggio
ben
pronto
guerra
uscire
bocca
haha
trovato
sito
prossimo
mette
guardare
👍
soprattutto
piccolo
chiama
aspetto
new
aprile
pt
saranno
luce
pochi
pizza
vostra
farlo
sanno
gran
ve
perdere
accordo
for
top
sesso
vince
devono
regalo
online
vittoria
sarò
volete
vediamo
verità
my
dietro
vivo
stampa
servizio
😁
cambia
prende
perche
giugno
nuovi
cena
na
##money
bravo
mente
liam
##mi
entra
abbastanza
##kiss
lega
vera
consiglio
web
bacio
nuove
festival
stavo
dm
venerdì
🙈
do
vinto
marzo
sud
giovani
andiamo
cinema
pubblico
milioni
piccola
grillo
mangiare
gioia
spesso
nonostante
costa
acqua
coraggio
negli
fiera
lista
mani
durante
ahahaha
comune
media
passo
arrivo
programma
😏
blog
madonna
mo
massimo
sue
v
pubblicità
ama
arrivare
fiorentina
quattro
treno
trovo
seguire
possa
ansia
settembre
ovviamente
domande
🙏
firenze
siano
anch
canzoni
##t
##ci
brava
pensiero
matematica
cinque
speciale
passare
salute
##l
tempi
stelle
mondiale
mondiali
ottobre
##ne
##ni
##tong
molti
pranzo
matteo
potrei
album
fans
fanculo
figlio
dispiace
mancano
w
real
😱
piacciono
moda
tue
pensavo
scelta
tranne
gay
piedi
cos
mostra
farò
##di
fratello
by
sicuro
xf
amicizia
resta
articolo
pioggia
facile
papà
💖
silenzio
caffè
felicità
nord
metto
sti
figli
idolo
normale
maria
co
piaciuto
andato
gara
piango
addio
sinistra
punti
risposta
sorella
terza
km
anima
teatro
##lo
diventa
ue
lascia
sonno
rete
cmq
direi
cielo
paolo
🔝
##ndo
nonna
giocare
uscita
vostro
germania
ehi
benissimo
chissà
pasqua
team
alcuni
mica
diritto
tt
peccato
aspettiamo
brutto
versione
primi
finire
conosco
aspetta
felici
qual
macchina
chiesto
avrebbe
solito
incontro
dicembre
braccialetti
anzi
and
triste
##si
pro
tantissimo
oro
google
intervista
succede
farà
ff
sindaco
notizia
cane
tl
verona
fame
guardo
deciso
😜
biglietti
inutile
progetto
semplice
club
sveglia
##le
iniziato
ritorno
troia
ufficiale
senti
vergogna
tifosi
morto
farai
manco
are
guida
stamattina
società
sicilia
polizia
regione
situazione
politici
💘
pensato
attesa
arrivato
sicuramente
pronti
partito
sarei
ascoltare
ps
star
danno
tanta
ta
finisce
manchi
gennaio
strano
letta
cit
palermo
##na
qualsiasi
genere
ricordi
k
disturbo
fb
sapete
provincia
mila
finita
stop
capitale
dolcezza
cc
metti
luca
speranza
date
viva
entrare
metà
derby
parma
vengono
pena
bravi
auguro
certe
novembre
be
freddo
zero
internet
vuol
torno
linea
vabbè
messaggio
😄
iniziare
esempio
amor
cambiato
eva
data
##li
ale
libertà
💞
preferito
like
dura
capo
vaffanculo
tranquilla
cerco
go
mafia
esce
nessun
info
causa
larry
dite
salvini
brutta
credere
emma
chiede
buono
posti
altrimenti
emozioni
##va
poter
distanza
bar
amiche
sos
spettacolo
mal
entro
voti
sbagliato
fuoco
canale
hahah
sexy
amare
stile
pò
giustizia
sap
momenti
popolo
tardi
aria
attenzione
moglie
ritardo
nero
spazio
pieno
kca
aspettare
cambio
alcune
motivo
selfie
sara
sociale
andate
edizione
vostri
fondo
scusate
caldo
tocca
coglioni
primavera
gia
baci
tumblr
whatsapp
diventare
morti
frase
serio
ask
carta
chiedere
lavorare
mtv
cucina
costruzione
ri
##vi
venezia
ricorda
oi
maglia
riesci
presente
posizione
ema
volo
economia
argentina
andrea
presa
fiducia
colazione
rende
scorso
offerta
test
conte
rosa
stadio
pa
arrivata
sentito
concorso
risultato
happy
compagnia
oppure
trovi
chiesa
sopra
funziona
genitori
alto
riforma
difesa
casino
carino
vacanze
scrivo
sapevo
biglietto
genova
scrive
##che
diciamo
ultimi
show
messa
significa
libero
età
dovrebbero
sardegna
omg
immagini
guardando
memoria
pezzo
eventi
occasione
andrà
presentazione
sii
propria
febbraio
ministro
santa
visita
nessuna
ami
giovedì
dieci
saluto
luglio
merito
natura
porto
##mo
telo
lunga
leggo
alta
##vo
##ma
sicurezza
lungo
😃
rosso
fossi
reale
bagno
pc
avermi
base
figo
poteva
account
parlano
terzo
##in
champions
farti
internazionale
piacerebbe
campagna
gioca
londra
cagliari
roba
intanto
idee
ascolto
breve
dimmi
segue
back
off
risultati
praticamente
aperto
art
##y
dolore
figlia
vento
piena
voluto
stessi
fantastico
##d
frega
ninja
scena
farsi
giusta
riesce
scoperto
campionato
colore
hotel
poche
luna
cittadini
chiaro
blu
evento
perfetta
kiss
vota
passione
best
##rsi
dati
quali
giù
##il
stupendo
👏
premio
porca
sfida
fila
soli
assolutamente
piú
nello
apple
forma
big
gentile
esame
destra
corpo
brasile
vacanza
continuo
aspettando
divertendo
quante
provo
napolitano
smartphone
trova
provato
colori
ultime
ste
aggiunto
lotta
😔
lodo
corsa
pronta
novità
stazione
porno
figura
merita
colpo
don
vada
sistema
weekend
muore
bianco
elezioni
molte
votare
##h
💋
band
dovete
dovuto
mezza
tengo
pagare
follower
eri
settimane
tutela
out
seri
libera
stava
francia
fi
uso
ovvio
insomma
giovane
anna
pensieri
anti
sorridere
uguale
pur
prezzo
nutella
conti
classifica
time
nostre
fin
rimane
el
impossibile
wow
jack
conoscere
y
martedì
photo
lettera
importa
differenza
ferrari
arrivano
spesa
pensando
zona
world
sale
lacrime
vorresti
streaming
rischio
indietro
cari
hey
parliamo
prendo
noo
spagna
zia
quell
tasse
davide
week
sappiamo
shopping
elettorale
compito
voleva
neve
doccia
cellulare
parlato
clumsy
onda
figa
minuto
sguardo
interessante
mercoledì
firma
##m
chiara
hahahaha
rotto
avrà
fandom
ahahahahah
rotta
apre
borsa
youtube
palazzo
mm
messi
stanca
up
latino
traffico
lupo
lavori
parlo
cercando
fede
scopri
giovanni
pensate
lingua
ottimo
stupenda
passi
esperienza
life
lezione
demi
segreto
catania
fisica
fu
coi
semplicemente
prime
dedicato
immagine
##rmi
vecchio
miley
credi
calabria
santo
cervello
signore
seguito
scoperta
ca
livello
occhio
cercare
fashion
parlamento
francese
verifica
potere
diritti
cazzi
miglior
league
dà
provare
qualità
vecchia
pubblica
avessi
italian
presso
incredibile
cantare
esatto
buoni
dipende
comprare
senato
pelle
bari
agosto
lorenzo
capisce
campione
dagli
valentino
russia
##c
totti
bambino
mh
mario
probabilmente
azzurri
music
possibilità
cover
sorpresa
cura
ospedale
en
scelto
j
##surprise
crede
università
conta
mah
puo
moto
lontano
corte
commento
andando
seguite
ecc
effetti
rome
partire
biggest
dettagli
##z
farei
esserci
consigli
vino
cristo
dear
garcia
bieber
silvio
finta
followers
buone
tema
open
vive
occhiata
ordine
risposto
partite
generale
tratta
##se
antonio
doveva
fronte
basket
azione
sala
attimo
sente
capita
##è
villa
marino
vengo
enne
democrazia
tg
coppia
mangiato
want
cup
##rti
sicura
perde
meteo
piove
stia
carlo
ita
dirmi
contrario
carina
incontri
vendita
minchia
preferisco
matrimonio
design
##ri
raga
birra
portare
ringrazio
meraviglioso
esistono
dovevo
cazzate
ouo
metro
discorso
addosso
pubblicato
preferita
##u
cavolo
food
nomi
errore
capodanno
conferenza
palestra
good
indiretto
concerti
pre
violenza
hahahah
stanotte
rispondo
grado
saremo
paga
piccoli
capitano
ansa
forti
rock
sangue
toscana
sinceramente
header
velocità
segno
ruolo
numeri
puglia
scusami
imparare
usare
parco
lasciato
scegliere
uguali
pasta
secondi
sarai
disponibile
divano
paio
que
immagino
anticipo
##ro
scrivi
rispondere
intorno
ognuno
gesù
coloro
centrale
balotelli
verde
ovunque
questione
riguarda
interessa
regali
povera
morta
benvenuto
br
daje
gira
dubbio
salva
italiane
faceva
uu
studenti
circa
risponde
onore
xx
parlando
aah
avrò
titolo
dicendo
vote
pari
conferma
ascolta
servizi
##mente
salve
agenzia
sisi
comincia
idoli
compagni
albero
guardate
riuscita
grecia
seriamente
partenza
quarto
pero
meravigliosa
troppi
appuntamento
certi
allegri
diverso
splendida
aiuta
q
feste
valle
michele
inghilterra
vivi
punta
portato
museo
giocatori
estero
esco
importanti
laura
sassuolo
signora
capisci
ss
seguirmi
basso
attacco
scoprire
dolci
record
fratelli
storie
riforme
bianca
farci
scudetto
girl
made
tornata
luogo
alfano
##rci
lombardia
parli
party
this
##io
fback
giochi
stefano
cd
##ò
animali
lasciare
city
sede
tristezza
costo
dieta
vederlo
uscito
mattino
pe
scambio
sciopero
##ra
directioners
tappa
sugli
mangia
avesse
giornate
là
chiuso
effetto
conosci
liceo
esami
eravamo
libreria
rimanere
torta
scherzo
serena
chiamo
giuseppe
civile
pagine
canta
cronaca
minimo
sette
ferma
dirti
verrà
chef
angelo
tramite
poesia
sbaglio
ahahahaha
presenta
simpatica
giorgio
innamorata
messaggi
ios
banca
salire
follia
costi
prendi
goal
poveri
continuare
pensano
nato
servono
pratica
conosce
formazione
frasi
genoa
povero
movimento
viola
cagare
nasce
mettono
errori
aiuti
night
palco
soltanto
##da
miss
pdl
inverno
gatto
digitale
store
opera
danni
commissione
fossero
piuttosto
accanto
intestazione
droga
saluti
oscar
personale
votato
divertiti
marito
giulia
selena
gp
zio
contenta
mobile
parigi
direzione
troppe
puro
leader
europea
scarpe
ricordare
dubbi
tifo
pezzi
now
comprato
master
america
##x
spiega
manda
tranquillo
preferiti
veri
appunto
eppure
aprire
chiude
infinito
cani
little
particolare
liberi
leo
certa
aperta
commenti
ricambia
puttana
talmente
mandato
##vano
politico
né
us
scuole
presenti
calciomercato
intervento
averlo
amato
st
valore
pianto
mangio
aperte
otto
palla
tiene
siro
azienda
tim
restare
lavoratori
richiesta
vabbe
##non
express
venuto
ufficio
premier
tw
gazzetta
or
tvb
sveglio
partecipare
tale
stronza
sn
sconto
passata
gelato
testo
avevano
esattamente
arrivati
paesi
para
annuncio
eu
europee
brescia
dirlo
roberto
emozione
free
posta
impegno
potuto
modi
lascio
giocatore
gusto
arrestato
porco
red
turismo
prodotti
finanza
lavora
parti
cioccolato
vestito
episodio
fabio
madrid
max
black
stupida
ponte
labbra
faranno
dovresti
er
dimenticare
mando
tornato
manifestazione
diversi
stella
capite
costituzione
coglione
udinese
pausa
braccia
ahh
vecchi
uniti
agi
je
ni
ricetta
grave
gambe
febbre
incidente
campania
pechino
stesse
potter
filosofia
rapporto
insta
ii
alessandro
ciaoo
evitare
energia
voy
lettura
batte
##rà
vedrai
entrato
uff
noia
smettere
divertente
direttamente
appello
green
orgoglio
torre
regole
imparato
prove
spalle
chiunque
fiori
min
please
man
rossa
racconta
play
passate
mandare
miliardi
fatica
violetta
diceva
windows
figurati
cina
home
disco
comunicazione
perfezione
finestra
bere
vostre
es
chiedono
lato
cantante
stronzo
informazione
forum
sognare
veloce
spiaggia
fatte
tendenze
presenza
buonasera
giornale
ricambi
pazza
aiutare
vicini
sconfitta
stanza
girare
ditemi
computer
sentiamo
buio
regala
ali
ridendo
genio
an
partecipa
fastidio
proposta
andrò
regina
carica
retweet
solidarietà
##per
chiedi
liga
vicina
amala
vederti
more
arrivi
##sti
pic
aggiornamento
controllo
##sse
venuta
meraviglia
dedicata
meriti
rimasta
codice
alza
isis
end
sms
utile
crescere
bimbi
conosciuto
sarebbero
francesca
caccia
viaggi
mistero
mister
visione
abbiano
vendo
attività
entrambi
avevi
mazzarri
taglio
bus
canto
rivoluzione
ac
confronto
##er
calma
schiena
frutta
volume
beautiful
bici
pane
ottima
scienze
visti
crescita
faremo
esistere
pazienza
partiti
soluzione
with
collezione
privato
sentenza
tecnico
arriverà
giornalisti
babbo
mail
baby
massa
doppio
sanità
##amo
leggendo
obama
analisi
maestro
farebbe
vestiti
braccio
interno
battuta
trick
han
case
toni
dovremmo
clicca
contento
mediaset
pubblici
duomo
comuni
##ssimo
fifa
tira
universo
mezz
finché
corruzione
naso
turno
salvare
correre
peso
abitanti
strade
offerte
tette
viso
gettoni
uccide
bambina
ciclo
danza
risate
carriera
allenatore
diventato
phone
protesta
volley
allenamento
riuscire
ns
assurdo
amano
banche
passati
staff
settore
barbara
imprese
classico
spagnolo
famiglie
potrà
ripresa
duro
monti
##rvi
venite
rigore
cm
aumentare
michael
affetto
muro
veneto
incontrare
##ing
insegna
nota
tagli
fase
fretta
obiettivo
gf
rom
bellissimi
gdr
singolo
york
ricevuto
##nte
lancia
capitolo
marketing
dj
stra
boldrini
mini
tenere
peggiore
studiato
prendono
directioner
story
positivo
maggior
invito
tedesco
pop
ritorna
negozio
kk
porte
fermi
##rlo
guardi
elena
area
impresa
abbinato
sostegno
toro
spot
tecnologia
padova
salerno
curva
giocato
##un
varese
campioni
fotografia
uruguay
educazione
bomba
bei
prandelli
rassegna
ultimamente
yo
match
vuoto
chiusura
glee
giunta
summer
assieme
charlie
chiamata
opportunità
ristorante
piccole
vittime
vorrebbe
qualunque
##phone
dimenticato
cn
ascolti
dormito
alba
cazzata
sembrava
vedremo
riuscito
seguono
specie
marina
sereno
prato
aereo
morale
diario
spiegare
strage
mika
profumo
femminile
scala
sembrano
sampdoria
inferno
network
decreto
ambiente
limite
cade
stavolta
voci
gabbia
esistenza
avvicina
sorrisi
playlist
battaglia
monte
bah
livorno
line
z
direttore
porti
chiudere
est
pancia
scelte
simpatico
carne
annuisce
fammi
trovate
coda
recensione
motivi
benitez
vedono
sant
rabbia
mix
riv
immaginare
intelligente
totale
strana
andrebbe
stronzi
vigilia
fermata
daniele
emilia
quarta
tavola
salto
potevo
from
capace
dov
troppa
raccomando
paola
tvd
fondi
fc
racconto
modello
corsi
creato
mancava
petizione
aggiorna
teoria
fianco
aeroporto
vedrò
greco
muoio
spacca
idiota
can
processo
scritta
propri
relax
creare
notare
andati
videochat
andava
ucciso
pietro
quinta
taylor
panchina
rica
seria
ladri
originale
dallo
siria
your
aggiungo
low
chiamano
completamente
sennò
umano
beppe
atto
sensi
svizzera
ucraina
concordo
dan
studi
##p
intera
disegno
chiamato
ceh
realizzare
fallo
personaggio
personaggi
termine
aumento
brividi
cast
acquisto
malissimo
bimbo
farla
cost
##me
nera
reggio
dovrò
pesce
difficoltà
mengoni
assemblea
##à
nata
alessandra
azioni
pazzi
stringe
alex
latte
aspetti
modena
giornalista
tantissimi
gita
cadere
risata
opinione
nove
ospite
condividere
ç
aula
segreti
persa
profili
barba
street
chievo
nascita
svegliata
termini
note
casi
disse
angolo
aumenta
atalanta
rocco
##g
##rò
croce
mezzanotte
vari
trailer
stupido
bo
soffrire
voler
gg
##rla
orario
primarie
volentieri
rimasto
avrai
scienza
gesto
apertura
talento
decidere
pagato
artista
umani
ingresso
diverse
mancanza
samsung
birthday
medico
lou
fidanzata
perfavore
iene
liguria
ballare
levante
blocco
convinto
business
disponibili
potrò
regionale
spirito
interrogazione
iniziativa
screen
ospiti
rompere
gola
chiusa
telecom
piangendo
aziende
protagonista
apposta
ascoltando
vogliosa
venga
chiami
samp
gatti
crepo
risposte
fiore
kg
asko
destino
ahahha
fermo
potrebbero
lezioni
regalato
squadre
frutti
fatemi
notifiche
dignità
denti
colonna
dormo
suona
tornano
brutti
quanta
claudio
rs
attraverso
mettete
allarme
maturità
prezzi
grazia
cassa
destro
continuano
insulti
pisa
single
enorme
solita
occhiali
missione
promozione
hd
uh
luke
fumo
##co
fiscale
percorso
affari
montagna
realizzato
maltempo
puli
avrebbero
naturale
raccolta
disagio
rendere
promesso
oned
intero
cuori
vola
imu
val
hei
pirlo
bla
giallo
relazione
europeo
martina
riguardo
nonno
tiro
credevo
rovescia
riso
azzurro
por
terremoto
condividi
am
scene
scrivono
##ca
carcere
sc
rifiuti
credono
ioo
assenza
luci
sullo
jobs
fidanzato
crema
seguici
sopporto
caga
dono
he
alzarmi
ko
magia
iniziamo
pensione
ahahahahahah
scherzi
sensazione
saputo
fisico
regionali
torni
bloccato
superiore
umana
scorsa
territorio
dica
tipa
##ssero
inutili
significato
bilancio
parenti
##rli
amiamo
incontrato
bacia
convinta
rice
debito
batteria
proposito
entrata
galleria
rumore
cola
cresce
gusti
luigi
morendo
contratto
family
associazione
reso
esser
storico
bergamo
merkel
franco
##zione
artisti
glielo
privata
david
togliere
ga
sel
immigrati
urla
barcellona
venti
piatto
passano
datemi
diamo
nazione
silvia
mega
puntate
##relle
siena
comunità
usato
dolcissima
piscina
simile
ot
biblioteca
sognato
ew
como
castello
ariana
compra
progetti
lecce
ricevere
piero
##erà
cinese
carabinieri
convegno
vittima
enrico
figure
mc
volontà
giardino
fuga
awards
dover
alessio
mercedes
critica
locale
interessi
caduta
cosí
maggioranza
avresti
conoscenza
compagno
gestione
aggiungere
girone
not
##sa
esclusiva
##b
gianni
##lla
boss
luoghi
act
compagna
abbraccia
car
impazzire
fantasia
tragedia
help
rischia
piange
mln
john
nba
forze
condivido
svolta
responsabilità
fondazione
manager
categoria
coca
vederli
operazione
anime
specchio
pigiama
cek
##al
materia
calda
nun
gio
sdv
vedendo
omaggio
andarci
supporto
sapeva
toglie
startup
##ssi
unità
mito
sentite
prossimi
averti
aspettavo
disney
mr
style
monza
cento
ripeto
condizioni
banda
diego
##f
halloween
final
pensiamo
fiat
spa
trasmissione
diventata
conquista
facce
infanzia
mar
dovere
odi
cominciare
spese
dita
famosi
riposo
iniziata
arena
bell
spiace
tavolo
abito
cattiva
peró
salvato
presi
sconti
diversa
pino
motori
santi
mmh
seduta
sé
piemonte
saper
passaggio
ricordate
anteprima
##ed
potessi
procura
tolto
cacca
tendenza
hottest
autobus
meet
report
arresti
clienti
gas
europei
falso
giudizio
perdono
pll
rimini
stanco
##so
aaw
rivedere
sappi
xfactor
ignoranza
bimba
averci
necessario
letteratura
aggiungi
pullman
urlo
marò
negozi
taglia
ghazal
rose
under
twittare
mentari
tieni
ddl
mesra
twit
caserta
smart
sebulan
digandeng
immenso
marcia
ferro
misura
grandissimo
paradiso
tempesta
bellissime
iva
prepara
quote
curiosità
intenzione
tennis
stima
boy
festeggiare
programmi
teen
digital
salvo
interesse
##tti
##ste
bho
crederci
##do
##con
miracolo
sorridendo
##nti
contenti
corre
perciò
maglietta
carattere
##an
dimostra
crush
decide
galaxy
anniversario
migliorare
aperti
battute
parlate
vicenda
facevo
federico
bruno
romano
verdi
tizio
look
faresti
conviene
factor
smesso
lady
cesena
unione
rendi
ufficialmente
maratona
dipendenti
comunale
monaco
informazioni
notato
denuncia
giornalistica
tta
pensioni
segna
chiamare
filo
barca
olimpico
banco
cambi
bayern
parto
annunci
lupi
guardia
calendario
agente
abbinamento
potevi
indiretti
got
ritiro
autunno
avevamo
cesso
pista
##tà
giornali
tweets
cerchi
raccontare
rovinato
parere
decisione
infinite
quota
maniera
crea
appartamento
assoluto
##rono
sposa
magica
emergenza
brevi
stage
leggete
disastro
trucco
laurea
perdo
altezza
citta
stabilità
lontana
simbolo
##gli
leonardo
alessia
pi
molta
arbitro
caos
perugia
tribunale
salta
opere
calore
credito
##k
coscienza
dedico
malattia
chimica
bandiera
hahahahaha
guardato
ehm
completo
maggiore
escono
confronti
empoli
vip
incubo
cambiamento
trieste
olanda
iniziano
football
berlino
stay
affrontare
invidia
segnalazione
sfiga
james
gigi
omicidio
tevez
dorme
condanna
desideri
avranno
inaugurazione
vere
limiti
##rne
latina
nanna
ministero
splendore
buffon
attore
##sta
gruppi
memories
mauro
darei
saprei
innovazione
special
sapevatelo
daii
finisco
flash
cio
over
mollare
profondo
calo
giudice
condannato
hi
ennesima
ferie
abbracci
desiderio
grosso
secolo
riparte
banner
recupero
rovina
##ranno
urlare
lago
commerciale
collo
abruzzo
toe
graziee
salone
paul
ch
autore
promo
importanza
svegli
saluta
inizi
bianchi
fantastici
fissa
mettermi
tatuaggio
potreste
mancato
portano
fenomeno
varie
racconti
altrettanto
za
##grazie
trovata
elisa
sembri
let
im
ricordiamo
india
cgil
dammi
simone
##v
our
incazzare
premiere
seguita
sentimenti
ascoltato
ringraziare
recuperare
vendere
##tto
vedete
##on
piede
men
cattivo
famoso
riescono
permesso
alice
gi
continuate
pls
trend
copia
eco
##ia
gradi
contatto
carnevale
tifoso
dvd
ricordati
siccome
dimissioni
stranieri
fav
sam
decisamente
farcela
principe
meritano
putin
capacità
chil
##rle
pil
olio
pianeta
avventura
godi
boom
notti
giocando
cristina
comunicato
medici
bad
amazon
bersani
cugina
splendido
speciali
hunger
nè
hot
virus
sociali
partecipato
costruirlo
medicina
copertina
darci
##hahahahahahahaha
ballo
generazione
sopratutto
presentato
marche
nicola
pagano
giu
regola
tom
inchiesta
mirko
ridicolo
mettiamo
##de
reazione
cancro
fatevi
atletico
scegli
van
giappone
biscotti
prodotto
abbracciare
pra
cliente
cominciato
candidato
cantanti
respiro
patto
lodovica
sindacati
ra
utenti
sviluppo
produzione
air
saga
completa
alberto
religione
finirà
sentita
tradizione
ricette
ridi
inviato
possibili
following
botta
regista
uk
acasa
hahahahah
dottore
seguitemi
pazzo
discussione
avendo
tipi
accade
svegliarsi
essendo
venerdi
sappia
care
cercano
pesante
africa
principessa
pescara
cucciolo
passeggiata
mezzi
mamme
pad
claro
cambiano
fox
sentirsi
maschi
collega
campi
incontra
nossa
politiche
rompe
need
certezza
metri
fiumicino
ain
dando
smettila
delusione
messina
protezione
greta
treni
fidati
rugby
giorgia
rientro
rimango
aperitivo
esercizi
vederla
sbagliata
aspettano
farvi
amori
##ria
candidati
esercito
piaccia
du
stipendio
##tevi
difendere
fonte
rubato
darmi
entrambe
parecchio
solamente
tecnica
sorry
giudici
fontana
facciano
saperlo
italicum
portata
segretario
cioccolata
ya
ideale
##news
sorridi
talent
dito
em
tutt
bce
tini
aggiornato
puó
raggiunto
medio
liberazione
locali
idioti
cartomanzia
valori
pipì
maurizio
colpisce
libia
professori
playstation
unici
potremmo
audio
bassa
inno
riuscirò
vissuto
titoli
ironia
stomaco
gamba
schermo
##es
stress
sperare
liste
scende
volto
parlamentari
suono
gaia
episodi
previsto
noto
likes
tranquilli
odore
scendere
gato
blocca
abbina
cazz
piaceva
sfigata
preoccupare
innamorato
brutte
moreno
higuain
conoscono
migranti
tablet
pallone
who
replica
depressione
umbria
diavolo
fuck
vincitori
risolto
camminare
messaggero
anke
medie
gossip
colpi
bg
potevano
rappresenta
accettare
benvenuta
festeggia
popolare
migliaia
continui
capaci
ufficiali
fiction
playing
scema
ricomincia
buco
singola
valigia
##us
guardano
argomento
lettere
averla
pantaloni
volare
ops
rap
meta
jorge
fini
otr
chitarra
styles
sezione
mugello
riunione
tiziano
panico
ritrovo
##tta
umore
mannaggia
vc
##mento
lunedi
preghiera
sembrare
scrivendo
concordia
sperando
pensarci
proposte
escort
spoiler
disoccupazione
romana
borse
pogba
famosa
dovrà
armi
pesca
will
insegnato
vigili
sx
giá
saltare
attori
idem
chiediamo
prese
ahahahahaha
attuale
sapore
lucia
salento
culturale
musei
referendum
vincenzo
rivolta
patria
comodo
apposto
attacca
ebook
cinesi
positiva
federica
soddisfazione
##ce
mancare
carico
linguistico
vite
doppia
cercato
mattarella
annoio
accesso
trovano
firmato
scappare
risolvere
peggiori
divertimento
scandalo
economica
##anche
prendendo
amanti
espressione
verranno
resistere
ginnastica
costume
panda
wolf
befana
restano
redazione
fighi
vamos
ombra
galliani
crimine
vidal
brasil
vamps
assurda
casta
ja
seguindo
avviso
quegli
umanità
guai
riccardo
valentina
##chi
chiave
just
controlli
tgcom
utili
amoroso
partecipazione
scritture
offre
colleghi
calci
cam
sergio
lunghi
sci
eheh
wa
istituto
superato
puttane
conosciamo
anello
leone
addirittura
uccidere
##ate
fo
acquisti
sembro
finiti
debole
capiscono
musicale
forever
regioni
balla
docenti
fottuta
otra
dimentica
rio
mettendo
gare
neri
telefilm
patente
odiare
mas
ep
dormi
dichiarazioni
cris
cia
assistenza
chiederti
quot
dance
lasciano
mentale
solitudine
sfondo
##lli
etc
potenza
usi
bhe
potenziato
what
malik
istante
##erò
fuochi
magazzino
diventano
##del
diventando
formula
immobile
assessore
pura
gratuito
school
thohir
televisione
reato
lotito
orecchie
coerenza
bacione
intelligenza
vende
professionale
fotte
congestione
dirò
fedez
bordo
coppie
aquila
impara
sondaggio
farli
intendo
bravissima
nave
viaggiare
anobii
pallavolo
annu
complimento
cogliona
israele
dona
uffa
romani
galera
sagra
messe
cammino
nostalgia
esci
stipendi
compro
siate
farle
passerà
wwa
cancellieri
anonimo
scopo
mancata
capolavoro
ridacchia
gomez
affatto
votate
lucca
ovvero
benvenuti
##ano
ligabue
uscite
occupazione
##tu
sbaglia
speranze
horror
resti
vasco
svegliarmi
boschi
poca
ebola
appuntamenti
gza
fondamentale
##w
perrie
permette
ritornare
perfettamente
salvatore
ehy
gazebo
obbligo
house
scrivete
vodafone
fascino
passando
beni
guancia
rip
vantaggio
ruota
dunque
dovessi
chiacchiere
nina
gb
acquistato
##ahahahahahahahah
preparare
lasci
moretti
premi
down
avvocato
amen
russo
precedente
stupidi
blitz
lu
spettacolare
yee
siti
tratto
fottuto
angela
always
orari
scale
suicidio
minaccia
lancio
chiamate
tenero
cell
amata
bionda
limit
disposizione
menomale
sentirmi
compreso
queen
corteo
credimi
pietra
civati
taranto
maxi
ricco
romagna
perfetti
compie
concetto
debba
gaga
attorno
fake
grandissima
visitare
rita
vent
dimentico
collaborazione
temo
sposi
sofia
ball
critiche
card
book
scientifico
cyrus
mac
chiusi
poltrona
travel
presidenza
superare
ag
articoli
alternativa
signori
olimpiadi
romanzo
wifi
matt
##life
beata
ki
moltissimo
prossime
rm
salvezza
lettori
milione
cassazione
esserlo
movie
dicevo
scontri
favola
avremo
apri
capitato
falsi
incazzata
jeans
rendo
cugino
clima
scemo
affitto
eccomi
twitta
eterno
scoppia
consulta
dovevi
nu
salutare
formazioni
vaticano
peter
imbarazzante
serenità
sofferenza
aggiornamenti
tesi
##ho
troie
trans
bea
immobiliare
mela
credete
beliebers
scontro
annuncia
lampedusa
simili
alti
ruba
stimo
gentilissima
bye
tag
pareggio
reddito
resa
fiato
incinta
morgan
spalla
mars
tenerezza
precari
vivono
distrutto
sheeran
ferragosto
risveglio
ciro
decente
signor
conversazione
watch
wtf
sussurra
avremmo
contest
forconi
ohw
rinnovo
lingue
botte
ricchi
stronzate
carte
pieni
chiellini
marte
potrai
coop
impressione
uhm
protagonisti
unfollow
tornerà
verifiche
sentivo
erba
allerta
segni
amministrazione
friends
torneo
mantenere
nci
pericolo
influenza
inzaghi
supera
pv
americani
qualcun
accorta
lana
semifinale
mancini
lasciamo
bi
dedica
ver
augurio
antico
enzo
blogger
briga
bastano
bonus
pan
immigrazione
ballarò
denaro
larga
previsioni
cerchiamo
os
vice
review
magazine
soliti
dillo
vincono
odia
viviamo
dimenticata
fermare
preview
straordinario
portiere
viste
mioo
consegna
avessero
mutande
butta
darti
zitti
bis
possano
preferisci
spiego
drama
scherza
rovinare
##zza
bottiglia
sana
benzina
mosca
legale
casini
responsabile
angeli
piatti
coming
promessa
discorsi
millee
fortunata
tfa
discoteca
brucia
facevano
resistenza
suonare
semplici
cittadinanza
sclero
mancate
sm
ferrara
guarin
song
giri
arrivando
sceglie
giudicare
sedia
usano
agenda
thanks
carini
australia
militare
altrui
run
motogp
cavallo
avellino
spendere
lab
cwc
magna
mary
chelsea
share
yes
rilevat
norma
sigaretta
sbagliare
combattere
livelli
connessione
ilaria
scappa
pm
maschera
dramma
scuse
fabrizio
sapendo
soddisfazioni
antica
confermato
ringrazia
breaking
austin
##bile
girls
polemiche
caratteri
iscriviti
pulizia
fascia
podio
##one
spara
##are
sostenere
carissima
blue
bando
frattempo
entusiasmo
dicevano
box
contatti
sentono
ip
tech
last
mandi
tristi
pen
gif
##ndosi
vittorio
lavorando
tramonto
oo
dd
orribile
naturalmente
##tte
fragola
infinita
bravissimo
turchia
spera
difende
spotted
george
malata
sbagli
zitto
metodo
ncd
starò
sig
farne
puzza
promesse
buttare
raggiungerlo
identità
dimostrato
piaciuta
bon
fallimento
ige
annalisa
esse
ragioni
felpa
privacy
legalità
camicia
stars
cognome
straordinaria
mt
##rai
park
coro
cesare
pene
tedeschi
piani
chiedendo
mattia
polemica
essa
eccellenza
fire
ritmo
colpito
invita
benessere
muove
venuti
trento
spiegato
par
contributo
sincero
mtvema
check
truffa
fazio
ammazza
simpatia
piaci
popolazione
umidità
petto
contare
evidentemente
nascosto
smetterla
senatori
sommato
prendete
iscritti
lasciate
mado
tirare
ministri
welcome
king
microsoft
cava
opposizione
leggermente
pochino
qst
viale
alzare
arredo
gianluca
commentare
tenera
testi
tappe
professore
ahahahha
grigio
dead
ventura
riferimento
grasso
tee
ginocchio
balle
etero
preoccuparti
raggiungere
vie
difetti
insegnanti
studia
propone
tassa
detta
##ha
gratuita
agora
ricordato
viaggia
succedere
bisognerebbe
superiori
selvaggia
mercati
lovato
pr
lavorato
epoca
attenti
ig
days
improvviso
bosco
maschio
statua
uovo
claudia
flop
sopportare
itunes
suite
realmente
laboratorio
controllare
ian
swift
saresti
volere
spezia
vedevo
milanese
circo
chris
povertà
pagelle
godo
terribile
here
ottenere
internazionali
port
icardi
uova
official
cuffie
proprie
nervoso
velocemente
tele
leggenda
circolo
fatelo
comincio
spieghi
seguirti
sportivo
invidio
priorità
invia
animale
prescindere
visite
dichiarazione
quirinale
mu
aka
cavalli
onu
tatuaggi
cat
leopolda
ricominciare
sicuri
click
merde
emis
ahhaha
mappa
rubrica
riflettere
##llo
email
miseria
corinne
interessanti
ignorante
rivista
civili
##ve
botto
finto
commercio
voli
congresso
innamorati
costruire
amante
materie
lambre
cittadino
cancellato
ammazzo
razza
today
dimostrare
persino
simpatici
stavano
rischi
magico
bona
torto
valerio
criticare
tsipras
tav
citazione
impegni
cont
killer
stand
pochissimo
##j
temi
##come
attiva
eroe
filippo
dante
mitico
europe
esibizione
inglesi
giocano
how
potesse
cristiano
true
esperienze
esseri
crolla
continuiamo
lusso
shippo
##italia
nazionali
shop
debiti
save
work
scaricare
fermato
atac
preferite
grillini
occorre
fà
cantato
##eranno
brindisi
felicissima
vergine
preparazione
ghiaccio
gloria
sim
gaza
start
nazioni
seguendo
aiutarmi
battere
travaglio
finiscono
augura
riprende
pio
pagamento
discutere
rendono
americano
spunta
extra
seguirci
scommetto
ka
chiudo
vicenza
ar
code
anziani
condiviso
giapponese
road
things
risulta
esplorato
morning
##ssima
volevano
completato
chiuse
potente
finora
convince
bicchiere
moratti
mostro
capi
saldi
logica
unfollowo
noemi
pavia
zitta
provi
accorto
lottare
dialogo
sherlock
dirigenti
bono
rimani
agenti
ba
temperatura
cambiata
saggio
perdendo
prestito
alonso
wine
##man
shock
fargli
grammatica
applauso
certamente
udine
basilicata
espresso
white
conclusione
risorse
falsa
organizzato
canna
portale
vespa
never
nati
normali
mobilità
jazz
alitalia
operai
vorrebbero
et
diretto
fido
pippo
scatti
orgogliosa
marchisio
patrimonio
cu
ammetto
andrei
firme
potranno
about
deputati
banana
feltrinelli
mag
abbracciarti
fisco
scadenza
ever
urso
vecchie
divina
ricambiare
centri
tetto
mattinata
affare
fabbrica
bb
ricorso
dir
zone
molla
ds
eliminare
feriti
ricci
giornalismo
diventi
russa
fisso
fiume
terni
scherzando
scanu
dirgli
coperte
creduto
sblocca
ipotesi
brunetta
emanuele
strategia
pollo
accetto
attento
emozionante
segnale
sarete
fredda
evviva
zi
katy
poster
call
wi
sesto
nobel
riassunto
tizia
years
monica
rapporti
riflessione
vo
oramai
smetto
immaginate
napoletani
amate
vincitore
neo
lontani
peggior
frosinone
scrittura
tagliare
osvaldo
bevuto
probabile
anatomy
bestia
animo
cantano
distrugge
litigare
pressione
sonora
confusione
coccole
interviste
scopa
nuvole
hard
matura
abitudine
sony
garanzia
esteri
entrano
segnato
facci
neppure
##mmo
ennesimo
magnifico
attenta
pacco
mon
provate
ro
ari
striscia
strani
castle
tram
rimarrà
cancellare
verissimo
dar
cambierà
parlava
ft
difficili
dl
power
quartiere
dovevano
sano
roberta
pago
nerd
offer
basterebbe
rimasti
atti
disegni
uscirà
troverai
fumare
applicazione
nascere
ele
nudo
sogna
torniamo
shadowhunters
sex
vinciamo
condivisione
stagioni
nebbia
sportiva
unghie
pausini
cucciola
menù
siam
elettori
lamenta
iscrizioni
mossa
mangiando
matti
grafica
mettersi
id
ber
titolare
##della
ehh
buondì
gian
hebdo
palo
dr
matri
alzo
saremmo
arrestati
deborah
ashton
ignoranti
eurosport
maschile
trentino
##tendenza
train
preparato
moneta
calciatori
scrivimi
pubblicare
virtus
gervinho
quarti
dì
storica
simona
sessuale
scomparsa
terrorismo
svegliato
psg
antimafia
asilo
girano
rubare
azzurra
volontari
sostiene
av
eur
bicicletta
dc
francesi
mari
andranno
prendiamo
sorprese
comitato
trasferta
voice
teste
panino
ripetere
##una
illegale
aqui
indirizzo
after
attrice
dibattito
tami
senatore
totalmente
economico
fico
tortura
malati
tasca
usciti
fortunato
serate
concorrenza
indagati
largo
americana
frequenti
quant
scritte
##ato
alluvione
stretto
thank
donato
ciclismo
virtuale
matera
##sono
studiando
preciso
quinto
##cciamento
sapevi
dev
arma
logo
performance
tb
manchester
costano
marta
belen
cappello
ruggero
nipote
partner
perdi
cucinare
succederà
ira
cr
attivo
poste
patatine
allegria
sponsor
sun
preoccupa
padrone
why
rosse
apro
nano
conoscete
american
tifare
miracoli
guardarlo
beve
bassi
giuste
cattivi
infarto
inventato
venduto
zucchero
sintesi
sp
##é
equilibrio
starebbe
doctor
interroga
job
multa
edicola
guadagna
giacca
godere
facilmente
esprimere
legno
mangi
spread
andar
gate
esperti
nomino
respirare
year
semi
razzismo
difensore
god
chiti
frutto
ridicoli
personalità
regalare
guido
mld
nonni
arrivederci
trattativa
riprendere
volevi
walking
arbitri
onesti
evoluzione
meraviglie
##su
autostima
napoletana
orientale
sparire
riusciti
pesa
pass
vorrà
giacomo
merenda
stellina
lucarelli
eroi
joe
rima
newsletter
full
xbox
sentimento
ave
vuota
sforzo
adam
scatto
creatività
professionisti
scontato
invitati
eletto
grey
rapina
massima
rompo
cagata
##vamo
greys
nokia
essermi
abbandonato
nomina
tensione
ahahahahahahah
richieste
pazzesco
zaino
vestita
ballando
asta
tratti
furto
asia
pietà
coma
pmi
smettetela
jackson
cleo
commenta
persi
lamentano
spiegate
meravigliosi
lg
fm
quadro
cerimonia
regolare
ricca
evasione
promette
lentamente
fanta
minoranza
btw
spedizione
maestra
geografia
aiutatemi
color
alberi
prodi
ripartire
papi
intelligenti
attaccato
##go
bang
muri
group
brand
basilica
classica
##is
contano
napoletano
piacevole
gigante
scorta
elenco
tenta
frank
tribez
tantissime
durata
mark
tirato
cagate
folle
ici
accusa
pjanic
andavo
imbarazzo
istruzione
ronaldo
uefa
sorelle
carità
curiosa
psicologia
sfi
ooh
regno
propaganda
sin
insultare
oggetto
tornando
odiano
usando
cori
istituzioni
##era
muori
martin
yep
finisca
sochi
dovreste
distrutta
amarti
investimenti
svincol
poeta
biagio
vini
amicizie
ebay
traduzione
nuoto
accorgi
lavorano
iturbe
convocati
ct
rimangono
masterchef
importantissimo
trovarmi
deriva
channel
mandano
christian
nozze
nemico
generali
gelosa
magistratura
disperazione
marrone
stupendi
killa
secoli
password
teresa
offesa
contenuti
stadium
esima
soffre
plus
sfumature
florenzi
quiz
beach
bomber
province
proprietà
gen
abiti
abbiate
garibaldi
iniziando
accoglienza
rinunciare
model
giustamente
annoiando
tunnel
idonei
speravo
disoccupati
pig
malato
metropolitana
altrove
aiutami
abilitati
ge
gabriele
prometto
wind
personalmente
edition
dovesse
spaghetti
reg
meloni
gestire
eleanor
occasioni
next
aspettate
draghi
caduto
necessità
crediamo
bruxelles
sound
riporta
bugie
##ss
make
highlights
lool
cella
pia
if
oroscopo
##rt
divento
marie
daniel
mentali
crollo
trovarci
poli
indica
union
dolcemente
sosta
dormendo
punizione
ubriaco
ab
turisti
sopravvivere
sappiate
talk
yahoo
decadenza
girato
andrai
landini
ancona
facoltà
rtl
colui
esposito
ferrero
erotico
irlanda
deluso
complicato
colosseo
parlarne
imprenditori
interrogazioni
vomitare
pilota
heart
sere
finchè
acquistare
consapevolezza
##za
matrimoni
##tutti
abbonamento
##ga
servi
prox
project
egitto
treviso
uccido
tenuto
riferito
canti
considerazione
specialmente
misure
veste
accaduto
ostia
risparmio
cartomanti
scatta
selezione
##ly
commedia
sfilata
regia
esagerato
spree
alcun
boys
##ng
solare
attacchi
preparo
democratico
cool
##en
calciatore
assai
piercing
diverto
pff
mobili
simo
arresto
fresco
dirigente
scopre
rifare
mestiere
annunciato
appetito
migliora
yeah
bocconi
toccare
vittorie
vintage
tar
ascoltate
renato
corrente
amoo
solite
sega
telefonata
gold
tel
cominciamo
giovanile
albergo
trenitalia
file
sigla
sub
fiamme
tmw
civiltà
els
darsi
riva
elettrica
dylan
ahahhaha
cala
scusi
chiedete
principale
dormono
prestazione
riusciamo
informatica
page
indagato
luciano
alema
figuriamoci
mazza
soccorso
esordio
hellas
bastardi
nervi
insegnare
succedendo
antonella
esterno
tti
linee
esercizio
insulto
ancor
orlando
##roma
ohh
modelli
resterà
ferito
riserva
part
guardandolo
her
averne
azz
padiglione
ampia
doc
paris
tornati
maroni
battuto
sacrifici
vendetta
perduto
modalità
sostanza
beta
stradale
accetta
sentirti
seguiteci
incendio
download
xke
sguardi
dott
gioie
corri
organizzazione
##tv
coso
stupide
principio
smile
corretto
fallito
coach
vamo
aiutate
autostrada
rendete
vorremmo
polo
boccia
relazioni
cretino
##as
cima
ricambiato
limone
costituzionale
tangenziale
applausi
lasciati
nuovamente
invio
cuperlo
sapienza
bc
bike
reti
people
pacchetto
tuu
gesti
playoff
orale
aha
village
tasi
apprezzo
dario
cercate
creazione
sabatini
bro
llorente
opinioni
juventini
##fa
sassari
raffreddore
kyenge
united
appare
twitcam
attaccante
domenico
figata
anticipazioni
eccoci
cotta
minacce
##ora
ice
lumia
sesta
vergogno
immagina
precedenti
prevenzione
destinazione
vertice
intendevo
carissimo
ten
orecchio
tecnici
interventi
colle
poker
eterna
effettivamente
scaricato
doni
busta
stanchi
forno
insigne
inps
way
tastiera
distruggere
vomito
ash
argomenti
inglaterra
geniale
salita
assoluta
speso
maledetto
messico
ricordano
esaurito
patate
ammettere
josh
ristoranti
situazioni
cosenza
perdita
sessione
tor
seguiamo
bastardo
kevin
##temi
tè
panorama
grand
vendite
poteri
soluzioni
center
parlamentare
montella
shipper
evidente
particolarmente
viterbo
delirio
damon
stardoll
organizzare
nasconde
robert
cercasi
permettere
##ba
dimostrazione
have
conseguenze
fece
preparando
curioso
patata
caffe
esimo
auditorium
porn
sold
uniche
butto
diventati
pepe
criminale
iniziative
sigarette
##ar
accorgo
balcone
fascisti
aiutato
sabbia
umiltà
ridicola
paghi
chiavi
omo
riceve
foglio
medaglia
fornero
camp
undici
prendermi
starei
banale
##hahahahahahahah
wall
iscriverti
midnight
sè
lutto
degrado
##zioni
fiero
arsenal
foggia
giochiamo
fisicamente
corea
taxi
smalfiland
jared
lea
pft
elementari
comunisti
vevo
vol
##ka
arco
novara
rispettare
fe
marotta
abituata
aldo
ott
vincente
inviare
penna
inoltre
vodka
retta
stavamo
capra
borgo
los
raffaele
giallorossi
ass
modella
segnalare
giulio
artistico
smalto
christmas
intesa
pugno
mandate
facesse
privati
finite
corona
femmina
piega
tasto
pink
vedrà
modest
false
belgio
smetti
urgente
statistiche
sorrido
bloccata
adolescenza
diversamente
veronica
aurora
conoscerti
muoiono
complesso
linda
bacino
##iamo
toccato
spettacoli
salernitana
software
raduno
disperata
notturni
rottura
prosegue
fidanzati
bola
prezioso
spento
interessato
proviamo
cassano
##tutto
sparare
action
salvi
pistola
bastava
scolastico
tavecchio
sospeso
architettura
posa
moolto
giovedi
vbb
strong
sedere
sino
aspettato
vincerà
micro
ritrovato
nascondere
fest
gasparri
xchè
fr
probabili
legato
sindaci
risparmiare
random
amichevole
mezzogiorno
depressa
veniva
giada
nainggolan
trapani
pulita
trasparenza
italo
maglie
troviamo
pó
oscuro
pizzeria
cattolica
temporale
desidero
mps
ringraziamo
adriano
traccia
##alla
terme
fighe
cl
pericoloso
##trice
guidare
gn
dovuta
ripreso
pensionati
arcobaleno
cretina
tacchi
assunzioni
divertita
dolori
gemelli
mandela
horan
premium
maradona
soddisfatto
donare
militari
get
duri
bu
negativo
but
valgono
mostri
obiettivi
sclerare
seedorf
disegnare
battista
madò
smette
ravenna
raccontato
liverpool
##um
amerò
civica
convincere
natalizio
armadio
piala
arrivate
volti
marijuana
emi
mara
european
minori
finali
motore
inquietante
anziché
assalto
iscritta
otp
orologio
vacca
soffro
elettronica
others
press
dna
cammina
eravate
ago
walter
folla
bravissimi
ucl
giuliano
brave
marti
consapevole
agricoltura
london
vetro
scopro
funzione
alimentare
stufa
##ino
scopare
cerci
ny
divisa
pasquetta
lavagna
menti
exo
workshop
pessima
stretta
ipocrisia
peppa
riconoscere
lento
gravi
vien
uffici
bm
menu
biondo
cristiani
piene
rigori
celebra
chiarezza
cristian
ultras
##ina
##tra
ndrangheta
that
moderna
panna
orgoglioso
plastica
four
misteri
vvb
strumento
scelgo
dani
professoressa
brano
ambito
##bili
investire
onestà
maro
sondaggi
leoni
gr
parcheggio
accarezza
lobby
rubano
parlavo
acceso
benedetto
choice
provando
tony
face
vergognoso
entrate
tessera
ipod
sbarca
braccialetto
sar
##ah
nico
docentio
dollari
canone
ewe
emendamento
tiri
pompei
##menti
fango
##tt
lucignolo
elementare
integrazione
scossa
spazi
andremo
ladro
istat
piacenza
comunista
riesca
camorra
risp
dream
governi
ivan
lj
leggera
beauty
infortunio
autori
ritwittare
brazil
chili
ape
eeh
scatola
jo
morata
##nt
riuscite
rifiuto
lucio
mee
intenso
orrore
supermercato
shampoo
segreteria
firmare
labbro
lmao
miami
buttato
mood
tengono
too
dea
votano
invasione
croazia
quotidiana
entri
trasporti
musical
accademia
nexus
hahahahahaha
pazzia
pres
banchi
gliene
saggezza
daniela
cri
gentilezza
magnifica
nope
chiedermi
centinaia
venice
break
fotografico
trama
leggero
isso
romeo
prete
averli
partono
linguaggio
zoccola
stadi
pelo
caterina
essersi
amaro
mussolini
meritato
mirino
stavi
provinciale
fortunatamente
membri
profonda
mondadori
corrotti
condannati
spazzatura
razzista
mantova
rivisto
bufala
impegnata
##ch
letteralmente
crescono
focus
##tori
international
bevo
studente
libere
postato
forme
jennifer
dovevamo
leva
macchine
cercherò
##it
cattiveria
municipio
prega
update
##st
manga
deboli
dog
cause
suarez
guerre
occupa
realizzo
documentario
ché
minima
cresciuto
dark
unita
wants
accenna
mago
terrà
strega
honda
movimenti
rissa
controlla
blanco
usate
season
pier
allievi
pretty
pesci
robe
editoriale
umanita
edilizia
faro
##smo
noiosa
avrete
attentato
tocco
paghiamo
bè
estiva
gra
alyssa
tuta
ultra
darà
righe
th
passiamo
mancherà
community
porterà
nausea
orizzonte
granata
sbagliate
##dopo
struttura
aosta
discute
appartiene
confini
avanza
versi
spiegazione
sfigati
recente
à
tenuta
dittatura
letti
riccia
tedesca
##am
mostre
lido
core
partecipanti
portate
diverte
pulire
guadagnare
comico
cuneo
aumentiamo
xche
west
bloccare
invitato
casuale
attendo
abolizione
perla
sfigato
rocca
togli
insegnante
challenge
litigato
vissuta
old
##zzo
personali
malpensa
fun
mora
polonia
terre
tuttosport
guardiamo
olimpia
vine
ricchezza
pulizie
proteste
ottenuto
imprenditore
spiegatemi
##ai
segnali
pala
umane
clip
quand
bday
tina
ljajic
juventino
vendola
corti
bra
terapia
fascista
disabili
agnelli
nicole
contribuito
disponibilità
assume
manifesto
junior
dajee
usciamo
strane
convinti
trasforma
##ssimi
ossessione
terrore
approvato
fresca
registrazione
omofobia
zucca
condizione
comporta
ferita
beato
trofeo
vendono
malattie
ottimi
amon
matta
matto
control
cisl
fed
comportamento
escluso
bag
##sh
decisioni
grz
armani
dirà
bonucci
racing
industriale
spaventa
bagni
serale
conseguenza
noti
nah
##sei
trauma
informati
petrolio
considerato
spotify
##zi
cor
qualcuna
dubito
ritrova
vengano
##braccialettilive
aper
strumenti
coppadel
ax
met
vattene
disagi
suor
##nza
citazioni
slogan
sará
xk
nominato
giannini
dale
spinge
disposto
sfide
tracker
tumore
cimitero
indagine
dic
multe
arti
farete
immensa
rinuncia
##ata
ritrovare
bob
daily
incazzo
digitali
poterlo
bombe
tranquillamente
riprese
costretto
regolamento
williams
tris
oggetti
capitoli
guadagnano
aggiunge
know
appassionati
island
sol
vedermi
golden
moro
naturali
lite
giusti
soccer
crozza
crediti
futura
consiglia
trash
vettel
barilla
tax
arrow
contemporanea
pronte
sincera
pienamente
alunni
scheda
martino
mate
dirvi
principali
##rebbe
asl
meeting
adnkronos
fernando
partecipate
pugni
chiaramente
pagati
skype
accorge
mitica
cessione
evita
smith
catena
valeria
tri
scarico
fortissimo
##pa
ready
temp
martedi
grossa
verita
magistrati
pasquale
popolari
ll
again
spam
margherita
semplicità
vivendo
delinquenti
cas
preferirei
eccolo
sottofondo
ruby
scemi
talenti
ritratto
origine
esso
siracusa
cancella
sapessi
sfogo
immediatamente
iscritto
chiudono
ripassare
##psicologicamente
zombie
arezzo
op
cuccioli
indifferenza
iran
gallery
castel
##isciti
stalker
dintorni
asca
respira
chic
hello
gentili
misericordia
cambiando
colombia
rihanna
corta
stiano
same
normalità
cambiamenti
amati
stanchezza
sostenibile
pisapia
centrodestra
corro
cioe
terroristi
stupidità
addormentata
tomlinson
rosario
nevica
pat
fantastiche
burocrazia
nemici
fingere
mangiano
fica
fotografo
rudi
materiale
bill
zanetti
argento
aumenti
dargli
tifa
abita
industria
rispondono
meritiamo
lopez
##he
seno
piazzapulita
enel
risolve
take
needs
ahha
linkedin
seduto
maledetti
twittato
cancello
adolescenti
pesaro
riduzione
eliminato
universale
pack
figc
certezze
coperta
faccina
suoni
ada
canada
sentinella
collana
cap
metterò
stacco
vangelo
cartoni
aiutano
ridurre
stamani
acida
xkè
marcello
calum
elegante
##gi
dimagrire
romantico
metterei
ritrovi
portiamo
sapori
alcol
debutto
abbassa
##el
venendo
ispira
descrivere
passion
domattina
autografo
nuda
salvata
cloud
feat
incontrano
gatta
conoscevo
pica
esclusivo
mele
ital
contributi
lecco
leggerlo
magra
pantheon
valido
adulti
corto
clandestini
numerosi
madonnina
fottutamente
dolcissimo
colli
seminario
tentativo
polvere
choc
grata
islam
riflessioni
ringraziamento
orchestra
proverò
deserto
atm
##sto
portando
positivi
light
documenti
rapper
win
tazza
gerard
organizza
eros
gnocca
spacco
baciare
prediksi
nova
##via
inferiore
cantiere
steve
carla
essenziale
potevamo
marca
maiale
lecca
outfit
ciccio
compresa
cambierei
##ty
aiut
sò
arriveranno
pesanti
buongiornoo
maggiori
caramelle
economy
marvel
andarmene
parlerà
friuli
trovati
geni
mali
mediterraneo
ahahahahahaha
guarderò
contratti
oni
##erei
corna
diventerà
capirlo
pin
cascata
siede
##pi
cantando
vucinic
manovra
svegliare
ovest
indonesia
atleti
vito
origini
##rgli
offline
chicca
vetta
soci
servirebbe
tommaso
sclerando
onesta
umberto
estivo
wars
eccezionale
fuma
profughi
milanesi
##eremo
porcodio
diaz
hahahahahah
pregiudicato
unito
carceri
stando
reali
responsabili
incazzato
sindrome
golf
rialzo
appunti
propongo
carpi
sentendo
##oggi
sweet
rega
##ì
carbonara
eccezione
ju
proud
perry
ordini
scrittore
grinta
ricordatevi
diana
mb
cuscino
aggiungermi
dovranno
sanzioni
gift
centrocampo
pompino
gratuitamente
fassina
lodi
lamento
pulito
candidatura
adorabile
idk
manu
fedele
vma
pri
irene
và
accento
jv
shh
troika
sorte
assist
palinsesto
utilizzo
gobbi
scritti
nek
pallotta
borghi
canali
modifica
fantasma
essenza
casaleggio
eleganza
fantasy
comando
renzie
spina
##ero
prevede
cile
avvocati
mose
domando
doppietta
iv
professione
jamie
prenderlo
##ll
sophia
aumentano
musicali
posizioni
carro
ossa
tracce
##ana
lasciata
attende
hope
preside
mensa
##zzi
tasso
##po
mostrare
abbandono
pretendo
guerriero
deejay
supercoppa
organizzata
ingiusta
consigliere
catanzaro
capirai
retwittare
pazzesca
marquez
illusione
presentata
cake
miele
uber
arriviamo
bom
potrete
bit
esperto
cartone
bossi
teniamo
perle
vanessa
congratulazioni
amazing
vadano
dichiara
kim
villaggio
ray
htc
funzionano
considera
jovanotti
ricerche
bontà
indossare
mira
geloso
equitalia
compagne
pseudo
apparte
atteggiamento
convention
democratica
tutorial
darò
settima
appoggio
regime
strootman
segnare
mafiosi
##rei
metal
condividete
secco
only
##ns
toccherà
assicuro
amavo
poesie
retweettano
hearts
cv
intende
pirla
augurii
andarsene
reparto
iniziate
ziam
aprono
lunghe
ottimismo
definitivamente
hamsik
vabbé
innamorare
aski
uccisa
eli
ikea
venduti
daai
recensioni
dichiarato
delusa
ter
copiare
rivedo
frigo
indagini
riportato
indipendenza
torti
bugia
savona
cavaliere
gelosia
bestemmie
wired
esca
acido
sama
alzarsi
tem
rotonda
maledetta
farmacia
rifugio
schiavi
rob
sigh
hernanes
riconoscimento
fotografica
cacchio
riuscivo
metta
cher
aggiungerei
##ja
trasporto
bbc
cremona
indimenticabile
onestamente
nike
comics
continuando
circolazione
sofferto
simon
panini
razzisti
comanda
ricordavo
fossimo
affanculo
logico
preparati
indipendente
principi
tace
ow
comunicare
gino
duk
vesti
punk
benatia
viareggio
fidarsi
first
lasciando
stranamente
scherziamo
alternative
elisabetta
ció
accettato
etica
johnny
##kan
notaio
siciliana
noioso
orgogliosi
poeti
presidio
rompono
believe
mid
tornate
tattoo
dovrai
lali
pole
gae
sandro
confermo
vizio
dipendente
massaggio
kakà
traguardo
sushi
pessimo
presentare
cortesia
stefania
assomiglia
##ur
pub
saltato
lamentarsi
reggo
mole
modifiche
##tá
troverò
urlato
comunali
alfredo
volesse
obbiettivo
ricky
lisa
aggiunta
tali
ancelotti
padoan
apprezzare
diranno
gati
indice
ispirazione
arisa
hp
yoga
sconosciuti
minchiate
sistemare
satira
degna
young
sindacato
##rio
lanciano
dimenticavo
quantità
perdonare
rientra
##nya
guardavo
where
occupati
morandi
gode
tomba
sprechi
copie
programmazione
rafa
ritengo
vietato
//
starà
lie
allenamenti
rivela
stronzata
marchionne
morite
tagliato
fissata
assistere
continuerò
dette
##solo
piattaforma
roby
virginia
trio
tono
impatto
tradimento
belieber
##os
concorsi
dovremo
peli
iscrizione
stamina
csr
twitto
gentilmente
accende
emozionare
operatori
scatole
alzata
finti
##cosa
conosciuta
##leggi
net
ticket
tromba
lavare
##q
aborto
volendo
paragone
panni
prospettiva
wedding
piovere
popoli
impegnati
##ó
gioielli
intendi
interna
tiburtina
bianconeri
apprezzato
serva
conversazioni
deficiente
passerò
vedervi
pietre
william
slot
scommesse
hop
alzato
prenderò
acc
proposto
vedrei
ranocchia
padroni
hip
http
adatto
atmosfera
brianza
presento
arianna
jam
intensa
prefetto
uscendo
riproduzione
feyenoord
giusy
fantacalcio
##bene
yay
invasion
tal
hahahha
attivate
appoggia
arrabbiata
postare
cucchi
grassa
riapre
facessero
riconosce
parrucchiere
ringraziarti
temporali
matte
cieco
times
zanzare
meritava
costante
emiliano
gne
impegnato
countdown
facili
feels
hour
spaccare
pistoia
pag
fuorigioco
rischiare
sparo
indecisa
poliziotti
oca
biologia
offro
concluso
another
gnocchi
suora
mp
yogurt
differenze
mundial
eleonora
##telo
poterti
metterci
cervelli
tribuna
culturali
cagatemi
infondo
segnalato
ze
tesori
regge
palestina
laurentiis
cretini
cure
mentalità
tacere
fast
puntare
ricarica
innocente
decima
auguriamo
sostenibilità
consumo
finendo
bestie
assente
sem
stupende
prostituzione
idola
particolari
palio
karma
prenderei
##ge
cine
borussia
durerà
conflitto
divorzio
garda
grida
friend
scorre
##ry
fair
gioventù
maicon
incluso
eurovision
originali
mori
##bo
zanzara
aiutarti
capello
sapevano
high
trattato
laureati
svela
funzioni
felicita
peace
tipico
insulta
alcool
esista
mollo
centrocampista
atteso
lanciato
serra
colpevole
onde
agire
france
pas
tinta
bambine
bem
tesina
tokyo
kinder
supernatural
xdd
vela
considerando
funerale
gufi
maremma
dunia
lama
morirò
cocco
difetto
vicine
alleanza
remo
ducati
prenda
dimette
vinca
sovranità
museum
sereni
stabile
tori
todo
mode
##ini
occupato
puffo
cory
rompi
trucchi
spaccato
artist
dopodomani
eccome
indovinate
##cci
menta
arrabbiare
divide
um
scolastica
ridotto
lamentate
shazam
ù
tuned
moon
diluvio
incubi
private
##ando
citate
esplode
very
awaw
buca
suicida
rimedio
bracciale
morde
associazioni
gliel
wwe
nega
consiglieri
scio
fenomeni
meravigliose
razzi
orso
rin
guardandola
nient
nigeria
##day
santoro
spagnola
rp
nuvoloso
cuba
trionfo
say
membro
bull
cannabis
sistemi
celentano
orosco
gonna
pu
marchio
vorrai
au
tornerò
quadri
partiamo
somma
perfino
sbatte
role
patrizia
basi
carissimi
cantina
culi
farebbero
piazze
riferivo
gratuiti
punte
chilometri
capanna
volgare
descrizione
canon
comprendere
casetta
mercoledi
payne
crotone
ragazzino
iraq
continuamente
trattamento
dodici
fieri
jonas
chiamami
ripete
eletti
autista
piazzale
fonti
cross
malinconia
profondamente
interessati
##lle
maestri
pregoo
proporzionale
caviglia
ouat
easy
campidoglio
affascinante
trading
pubbliche
sportivi
riempie
reati
pol
perfect
cav
delusioni
invisibile
dis
benefici
ignazio
cuoco
beneficenza
shirt
accordi
svezia
meritate
globale
scherzare
nere
cerchio
interviene
notifica
provano
dirle
mentire
incapace
privilegi
durare
boia
furia
statale
avversario
camusso
menziona
rey
##ere
sh
fermati
parità
vene
coffee
hair
batman
zeman
colpe
cifra
magic
ischia
romantica
mike
definire
drink
jessica
dentista
moment
bip
pp
scommessa
ergo
nottata
abbandonata
dischi
oc
menziono
sb
antipatica
eliminazione
ammiro
fotografie
tentato
pirata
emendamenti
utilizzare
nodo
onomastico
ugualmente
schiaffi
cal
der
criminali
abbracciato
sf
rate
funzionare
presepe
tradizionale
avventure
crescendo
degno
alte
fermate
governare
abbandonare
malta
denunciato
mania
inserire
accontento
camion
bestemmiare
onesto
much
bilancia
giardini
legata
carine
beatrice
decine
scopata
riempire
icona
bestemmia
aerei
corse
pride
sacro
documento
falta
she
distruzione
cresciuta
frassy
insalata
ye
lego
esta
compenso
ceretta
ts
retorica
commerciali
signorina
troll
altronde
registrato
cominciano
prendersi
bussa
furti
piloti
spreco
scozia
hitler
comment
pianta
trenta
stelline
rivivere
federazione
salsa
##tura
soddisfatta
chiudi
oceano
tasche
risotto
ordinario
tuit
fottuti
raggio
manifestazioni
beccato
ru
discarica
preferisce
evidenza
ross
scriverti
sunday
accompagna
sab
rl
improvvisamente
maschere
comunione
fumetti
propositi
standard
paure
visualizzazioni
professionista
reuters
realizzazione
sconvolta
##ie
ditelo
perdona
california
gliela
##be
attimi
castelli
franca
##ggio
riscatto
indovina
rendiamo
credibile
votiamo
clamoroso
ella
biondi
servito
segreta
porcellum
veloci
sharing
##bi
keep
preoccupata
rinnova
bruciare
definitiva
backstage
nesli
mds
commissario
ers
adatta
famose
lavolta
cessa
trono
dimmelo
quindici
continuazione
zz
office
preferenze
##nel
raccontano
spada
dettaglio
costretta
tirano
astori
chiare
fitness
fitto
venir
comello
portogallo
maniche
curare
ragusa
sensibile
kiev
flavia
pianti
istruzioni
sposare
dava
allunga
arctic
indossa
concesso
carpet
grido
thrones
pensava
hasil
favole
pg
leggono
muscoli
cugini
compresi
raggiunge
anelli
nani
ottavi
funghi
sabrina
sporco
soon
tende
santanchè
rinvio
susu
vantaggi
mozione
bueno
mancherai
avril
vedeva
pesi
successi
srl
vedrete
bili
hobbit
##tore
consenso
future
cede
ahs
fat
sete
great
raccogliere
bindi
servirà
interista
scarpa
divertenti
retwitta
rossoneri
chia
rientrare
profumi
scrivania
insopportabile
disperato
immaginavo
sal
comunica
vorreste
benfica
videoclip
##sco
andy
benedetta
innocenti
proporre
ger
promuovere
tecniche
perdiamo
candida
ismo
sconosciuto
alemanno
aahh
classifiche
lira
registro
spiagge
andasse
girolamo
dritto
##chat
crocetta
amenti
sopracciglia
campionati
opposto
##ciao
mad
porcoddio
lieto
crimea
sarah
lost
unisce
sostieni
abbandona
schettino
giovanna
rode
cliccate
lily
brasiliana
spari
robot
provarci
pian
pl
zoo
convinzione
cuoricino
recita
dimenticati
ebbene
collection
tolgo
bug
facevi
##at
##live
portarmi
emozionata
positive
onlus
##ki
copertura
collegamento
piangono
jr
nervosa
spargere
bat
chiari
trn
pazze
salotto
isole
qu
sensibilità
kit
uccisi
tentazione
cristiana
manette
farina
risparmi
lenta
civ
pinocchio
tak
tana
mina
cadavere
muse
merlin
attendere
vendi
soggetto
ricostruzione
striscione
ritardi
sposo
provino
must
rifiuta
gelo
rinascita
serviva
bellezze
##ers
thomas
caritas
problem
podcast
##remo
##nella
lacrima
corda
periscope
troverete
finanziamento
energie
becco
tata
guidata
decidi
fran
terminato
realizza
ingredienti
timeline
complicata
fori
abituati
touch
ragazzina
versioni
cameron
bibbia
palese
verratti
sacrificio
lamia
auguroni
ilva
simpson
padri
resiste
piangi
rally
nepal
mer
race
anto
formato
appalti
fascismo
banane
assisi
gemma
secca
balo
cambiamo
fedeli
procede
facciamoci
scoprite
palma
ultim
cs
tosse
copa
istinto
vetrina
ocse
legati
mura
esprime
storto
offerto
chiedevo
##rs
console
rodriguez
futuri
contenuto
##ró
processi
matita
pecora
valere
incidenti
accedere
alcuna
scarso
fortunati
ebrei
sforzi
massaggi
addetto
ospita
consumi
crowdfunding
fibra
usata
ryan
carmine
buonissima
camere
wwat
efficace
ciociaria
elounor
dritta
vienna
cambiate
cent
sentimentale
socio
tricolore
scomparso
giulietta
desiderare
mancavano
ritorni
winter
attaccare
guide
settimanale
cercavo
##rini
carmen
sasso
brown
fama
furbo
aspettative
cornetto
bevi
benigni
##emozionecontinua
vergognatevi
melissa
maio
aziendale
ida
capre
definizione
spegnere
verificare
smm
stefan
perdete
avversari
nino
michela
çç
intellettuale
vogue
obg
avs
piglia
poltrone
valida
capolista
prepararmi
okok
interessata
##fi
vederci
raffaella
motivazioni
victoria
marcio
##pe
manuale
rivoglio
accendere
mob
sec
lesbica
cela
familiari
scusatemi
oso
cannes
incapaci
natalizia
tras
potremo
amsterdam
gre
benedica
ap
player
riga
brivido
discesa
gentilissimo
testimonianza
paletta
insultano
cavo
stream
class
inaugura
point
invernale
calderone
nasa
##zio
riviera
give
carezza
spesi
sprecato
governatore
integrale
crudele
assassino
mentana
##radio
padrona
juan
torres
mafie
concorrente
volano
list
gabriel
accadere
ricotta
radici
curve
invitiamo
sorprende
##nto
batti
partendo
sanctis
smetterò
volante
piaccio
scherzavo
pet
tradito
secret
sas
virtù
telecronaca
taverna
conosciuti
vertici
giuria
folli
wilde
kovacic
berardi
verbo
abbi
vida
allen
camilla
scom
soglia
perdonami
carichi
apparire
primaria
glass
mourinho
astronomia
lotto
succo
enzi
eheheh
acquista
mangiamo
bn
##com
##resti
spending
premiazione
sarda
staccare
temperature
attualmente
epica
scimmia
ligure
fragile
barbie
sottile
metafora
norme
rep
riuscirà
incontrarti
urlando
royal
bulgaria
kurt
incazza
testimone
critico
snow
tosi
sposta
confusa
ahhahaha
gala
rispetta
##sso
stupisce
modulo
gennaro
##ati
oretta
step
trip
dialetto
rolling
vena
rompete
alias
academy
orto
atim
berlinguer
valutazione
ombrello
cosplay
giovinco
perfette
sporca
acque
incarico
dnl
serial
tenete
tatangelo
dottoressa
alimentazione
charles
spende
sorellina
abituato
imbecilli
molise
total
russi
approva
segnalo
##più
gt
enni
##dei
##ssime
offendere
estrema
opzione
divisione
##temporaneamente
##qui
liberta
neymar
volontariato
flavio
interiore
peppe
attivi
tenga
costretti
fobia
##ment
sequestro
avermelo
spegne
unite
scia
nascono
rizzoli
penale
fetta
canne
lenti
lights
alone
##nd
atletica
infame
dimenticherò
ph
##zing
divino
ciccia
possesso
diffondere
jadwa
ordinato
renzo
menzioni
manutenzione
shameless
sappilo
sposato
gallina
nice
preziosi
steal
azzurre
dimenticate
servire
china
mejo
gravità
spring
caduti
boni
indispensabile
sorrentino
storici
ragazzini
divieto
piogge
sincerità
sbagliano
dappertutto
governa
pubblicazione
location
figlie
photoshop
ring
two
squalifica
concreto
montagne
farsa
informa
caricare
cairo
esplodere
glamour
bianche
pretendere
hardware
whats
restauro
cittadella
ww
automatico
shakespeare
attaccata
lassù
piante
veda
qs
dimensione
lasciami
conquistato
saprà
suis
enza
offrire
matrix
age
triennale
chiese
comandante
droghe
bloccati
##the
beati
sfugge
casting
zza
aiutoo
finanziamenti
avvio
incrocio
fiscali
topic
nada
volevamo
ritira
elezione
salviamo
perse
assassini
sapevate
vali
gonzalo
rilancio
reazioni
unioni
annullato
torte
elementi
vinceremo
picchia
pronostici
eni
sinistro
falla
giunto
funerali
cecilia
##ndomi
finisci
carlotta
angeles
mandiamo
gdf
kate
estremo
ridiamo
retro
adsl
finestre
immobili
dipendenza
vasca
salti
assurde
stamane
lovatics
neon
sinceri
seguitela
##mu
biennale
stà
ricordata
smettete
assenze
palacio
patty
filippi
marc
##que
uniamoci
separati
##lu
yg
accuse
lavatrice
inizierà
ego
hoy
motta
jean
incredibili
opinion
taggal
mil
marea
scuote
riscossa
lorenzin
cartellone
btp
farfalle
hit
lava
conquistare
onorato
collage
hasta
sticazzi
pareva
accessori
silenzi
venezuela
service
allontana
drive
gomma
cartella
stacca
capendo
siciliano
divertito
diamanti
sett
eccola
moggi
madh
porci
spia
coalizione
bankitalia
ron
ef
tregua
cavoli
avreste
buonissimo
vinta
rivolto
differenziata
deh
abolire
quì
operato
ombre
starci
catching
fumetto
esposizione
farmaci
trasmette
xché
##zz
nunca
oriente
genovese
montolivo
ripetizioni
ballaro
circonda
amanda
favoriti
interisti
von
shi
rachida
pomeriggi
long
bot
frontiera
culture
##zzazione
dinamo
abbigliamento
paziente
confindustria
contesto
potenti
economici
mauri
intervenire
maledizione
sí
rispondete
finanziaria
operatore
digli
accadrà
sensazioni
montecitorio
indie
saint
##rá
zen
abate
cè
agg
parliamone
audi
maturita
letture
##amoci
corpi
illumina
tipica
norvegia
competenza
capitare
cla
mortale
adolescente
amatoriale
dom
preghiamo
senno
sfortuna
asr
##poi
testimoni
picchio
teramo
lotteria
cadono
jadi
pasto
cessi
##ccia
water
candreva
favorevole
vaniglia
tacco
terreno
ponti
entrati
uzi
affinché
global
coniglio
spezza
giuls
##or
sacra
pf
tr
pregare
canal
vans
##milano
ana
biscotto
centra
uuh
mel
fail
twitt
casco
gallo
compare
serbia
twittate
sostenuto
concorrenti
ridono
tocchi
space
alzi
desidera
confine
sl
scarsa
balena
progresso
bacheca
infine
poletti
direbbe
clan
prosciutto
photography
##ani
tonno
completare
colloquio
aiutaci
##cchi
cene
ship
impianto
generazioni
possibilmente
imbecille
sassy
cifre
multi
enormi
costruito
portavoce
sborra
candy
produce
pronuncia
settimo
ospedali
giocherà
elettorali
giovanardi
uccidono
saro
benevento
aku
florence
cocaina
gridare
ritrovata
dari
bonino
scoppiare
pesto
portami
chiamarmi
##ale
mortacci
cucine
riposare
interpretazione
compri
hollande
trema
bitch
calmo
clash
cartello
schiaffo
percentuale
abbracciarlo
laria
verrai
reagire
dedicare
cellulari
bolzano
giletti
galassia
realizzata
regalano
bacioni
guardarmi
proseguimento
donazione
sospetto
chance
wii
pori
##eresti
resoconto
facts
pioli
pecore
notturna
timida
cadenza
metterlo
modelle
adele
fottere
poliziotto
torneranno
slow
prenota
personal
considerare
consigliato
export
##mai
robin
grandezza
mozzarella
fegato
prevista
agrigento
fara
grosse
netto
povere
quagliarella
ciascuno
bond
rc
facessi
cibi
cappella
ripasso
sospensione
subire
prenotare
pubblicata
voluta
debolezza
rivederti
tolgono
liars
ubriaca
sgarbi
loves
umile
copiato
gialla
ven
espulsione
pordenone
##youtube
dimentichiamo
foresta
##ke
scendo
coltello
ambientale
immaginazione
pasolini
goccia
svegliati
##vs
fischi
materna
ostacoli
senz
garante
operaio
uccidendo
decido
enti
tilt
classi
soldati
freccia
mandarmi
leggerezza
velo
blues
promuove
rimonta
approvazione
utilizzato
borriello
fondata
bellaa
mondial
hollywood
becca
cagna
passioni
antonacci
ramazzotti
tangenti
pasticceria
registra
calzini
gemella
gds
buffone
amarezza
guardalo
##oni
osserva
trionfa
pronostico
addetti
cenare
scrivetemi
##tre
vampire
##appreciation
periferia
tranquillità
notturno
segnala
##hai
##quando
qualcos
preti
taci
af
convenzione
gravidanza
reggia
salutate
confuso
atene
iniziale
viabilità
andre
cagato
waa
spiegazioni
corretta
fanfiction
emozionato
assunzione
averle
lasciatemi
tuffo
jim
gu
termina
froci
sardo
domina
liked
portati
seguirò
pon
jajaja
microfono
impressionante
cappuccino
fw
attivisti
##son
aggiornare
roll
palazzi
duetto
solitamente
aro
ahw
anderson
colorado
magliette
cappy
cagano
rispondimi
formaggio
pensaci
camomilla
austria
femmine
preoccupato
amami
##gno
intervistato
conclusa
compiuto
sostituire
mcdonald
gnaw
inedito
ricorderò
franceschini
ammettilo
periodi
crazy
ricordarmi
sedici
guadagni
fangirl
colombo
valutare
ferite
sante
realta
competenze
beatles
riuscirei
bias
pes
bianconero
##ei
pompini
ascoli
boa
rito
##erai
succedono
divertirsi
archivio
fab
invitare
mama
percorsi
buy
##dio
cedere
aspetterò
parecchi
edizioni
lucy
trovarti
paesaggio
scooter
scrittori
ris
ripenso
emoji
mala
##ya
kill
minore
tremare
ditta
chiudiamo
commesso
riuscirai
municipale
##sport
siciliani
##et
solidale
trasmettere
gta
elio
##nn
pillola
categorie
desiderato
navi
investito
pagate
reggina
ceduto
##sca
madri
astinenza
oddioo
levi
attendiamo
abbassare
tigre
romanisti
cancelli
relativo
pomodoro
lanciare
rho
falli
vr
figuraccia
body
gualtiera
utri
cavani
disposta
proteggere
vescovo
bolletta
accorti
attualità
kebab
combatte
##gio
unicredit
klose
eccitata
censura
strisce
gusta
scout
five
shot
semmai
mentalmente
violento
poverino
rami
essi
dedicati
invisibili
soggiorno
credibilità
rinunciato
salutato
parrocchia
cresciuti
sopravvivenza
decisivo
ubriachi
tenendo
ruote
verrebbe
sonia
interessano
falsità
anziano
condominio
verrò
ahi
fer
buttati
elba
sparito
nana
##cu
prenderà
calza
its
larghe
sospira
baglioni
detesto
bisex
cronache
sentiti
teatrale
polso
singoli
topo
serietà
ottimista
corr
aiutateci
telefonate
geometria
citato
ante
sbattere
##á
aprite
alfa
toti
ugo
notai
simulazione
bandiere
ridicole
barzagli
affonda
ascoltano
combinato
nomadi
ser
ignora
pensierino
nash
lupa
tonaca
offeso
##renderlo
##zo
may
spasso
bff
turistico
manifestanti
pochissimi
scuso
griglia
burro
taka
bake
cipolla
prigione
bitcoin
investe
arturo
sufficiente
veniamo
procedura
odierna
sospesa
diva
rileggi
moroso
provaci
esisto
calze
fugge
xii
tassi
sparato
fermarsi
valigie
continuerà
hannibal
padella
lieve
apprezza
saró
collegato
ammette
lalala
pray
market
ragazzine
distribuzione
splendide
autorità
##men
trattare
fondamentali
cliccare
segua
uil
gel
garantire
led
ingiustizia
premia
facciamolo
genera
war
trasmesso
affermazione
suvvia
clown
nudi
fotografa
##blog
hola
definitivo
trastevere
badoo
epifania
piccolina
fd
deputato
inserito
usati
anda
decenni
tempio
vinco
piastra
trasparente
fantasmi
ahahahhaha
pct
##web
volessi
littizzetto
unpopular
provalo
musulmani
mutuo
vabè
belloo
indifferente
leopardi
passaggi
sconfitte
competizione
panettone
management
assolto
raro
tenda
ola
rosy
trent
urlano
comprensione
pavimento
smurfs
pericolosa
##quanto
nido
ir
ordina
presentano
hacker
fotocamera
sen
vivente
muovere
impianti
creo
carrozza
lode
testimonial
scott
rimborsi
wild
scoppiata
rico
esserti
cioé
quotidiani
mfw
carbone
##ru
demmerda
stan
grassi
enjoy
commosso
teme
scempio
ou
romania
##ono
addominali
spetta
jesus
##ff
assumere
pittura
clara
ottiene
kindle
diaries
nao
reality
estetica
scriverlo
rovinando
capri
ral
istanbul
mantiene
catalogo
comprano
##ecco
martini
gaetano
decidono
ilove
mq
avv
dimentichi
asso
venisse
sottotitoli
sceso
ipocriti
immaginato
tudo
esposto
mangiate
hihi
peste
sbatti
aderisce
running
person
marchesa
girando
ribalta
ahahahahha
vallo
##glia
gnam
manzoni
telecamera
duo
bmw
trasformare
scappo
cassetto
sassi
sognando
sks
odiato
td
spiegami
veleno
manuel
sotterranea
dubai
chissa
prenderli
criminalità
##eri
pippa
inizierò
toto
guardarti
aiutiamo
incanto
esperimento
saglio
ido
grosseto
portatemi
pie
marmellata
telefonica
aree
giudica
amando
reportage
fateci
necessaria
brace
ottime
zac
galatasaray
preziosa
bufera
lugano
miur
energetica
richard
anyway
gang
servo
riduce
scriverò
ente
complotto
rischiano
teaser
scaletta
fragole
cate
kaka
##cc
tango
aggiornata
grossi
mou
qnd
mancherebbe
divertire
felipe
lara
ibra
cole
fall
ipocrita
domiciliari
curriculum
precisa
inventare
amarlo
misto
dean
tattica
pento
dose
recitare
cesaroni
moderno
riccione
richiede
urge
ossigeno
rara
sorrento
azzardo
suggerimenti
massimiliano
sosia
brillante
##set
bagnato
river
emily
doodle
vidi
hamilton
cantieri
allenatori
grano
ribelle
evvai
followme
seduti
stanchissima
makeup
crepi
pone
raf
##perché
ragionamento
strategie
strappo
ascoltavo
avessimo
criticano
passera
cocktail
antipatico
declino
rilassante
well
nelson
britney
earth
gelmini
giffoni
tiki
scrivermi
calcola
egli
dybala
intervallo
rileggere
vuoti
##for
sardi
zara
leccare
imperdibile
utente
rimediare
regà
designer
rischiato
routine
giganti
chimiche
buchi
shippers
egoista
trilogia
trascina
muffin
casse
intimo
##land
abusivi
evito
campana
pasti
provoca
pappa
frana
vou
ivo
gocce
elimina
spettatori
clinica
place
commuove
teneri
eclissi
albania
cominci
vitalizi
soggetti
aprirà
semestre
mango
riportare
capitan
imbarazzanti
occidente
fenice
bronzo
friday
perez
cda
innamorarsi
coincidenze
negare
##etto
sani
spengo
brian
talvolta
onorevole
agostino
nucleare
lasagne
pos
volpe
prossimamente
impari
colto
pellegrini
##je
bottega
adora
luis
scorda
falcone
presidenti
consola
minimamente
scandaloso
architetto
produrre
riconosco
timore
armonia
hockey
ragionare
bruciato
coperto
impazzendo
interrogata
grafico
rare
ritornano
marittima
caratteristiche
ascoltata
arrabbiato
foro
baciato
adriana
comprate
fogli
right
efficienza
calabrese
ironico
negativi
cantata
ol
lasciarmi
durano
valencia
virgola
veder
buche
terrazza
##ssa
alessandria
indiana
cattive
inside
inviti
mortali
prestiti
mouse
support
roger
alpi
##tradio
wikipedia
esempi
##tour
quinte
lasceremo
cravatta
arroganza
sprecare
colpevoli
esito
marchi
ahimè
pugliese
telecamere
gelateria
smentisce
genitore
vincitrice
elle
nazareno
professionalità
aggiornati
sapesse
questura
candidata
suonano
catene
tumori
delitto
experience
dragon
poiché
prenderti
insultato
giustifica
riconosciuto
when
sequestrati
hyung
goditi
laziale
sacchi
estremamente
##xx
americane
land
cody
##rie
izz
jonathan
questioni
impone
morso
shore
tirreno
##ok
classici
fattura
finge
pascale
bri
quiete
webcam
statali
salvano
passeggeri
ammirare
pozzo
evitate
esplosione
qatar
rilasciato
fumi
fischio
sali
cuadrado
nascosta
targa
impero
visit
officina
fiom
asdfghjkl
mostrato
inesistente
intese
udienza
lettore
mosse
riprendo
suolo
read
hogwarts
strasburgo
dottor
bank
scriviamo
portafoglio
des
castro
stupisco
capolavori
eminem
bancomat
circuito
invenzione
sapone
vincerai
laboratori
##forza
ascensore
spargete
accompagnato
ml
muta
sopporta
ginevra
fianchi
revisione
tenevo
##tro
vu
apa
pay
consigliate
videogiochi
tappeto
maya
laga
tentare
cinzia
indescrivibile
ammesso
estratto
ascoltami
ascoltarla
delinquente
trovarlo
##tion
altamente
mhh
labbruccio
bentornato
commossa
gomme
spostare
guadagnato
splende
garage
pretende
sordi
societa
scompare
sbagliati
einstein
pizzo
obbligatorio
beat
berlusca
uva
abitare
beffa
fmi
fermano
fallire
cannavaro
assistito
motto
faccine
minute
lent
recuperato
hahahahahahaha
novita
dortmund
tecnologie
conduce
twilight
decina
milf
woman
##ccio
temere
iper
##sci
assago
visitato
albe
bullismo
albano
furbi
event
ole
calcoli
gesu
omosessuali
dispositivi
violenta
ministra
dicevi
##pp
accidenti
calmi
comprende
##rete
saggi
esc
restiamo
lasciar
allucinante
erasmus
eataly
bordello
diamine
santità
spinta
sbagliando
cazzoo
##tela
natalizie
caricato
def
approfitta
vagina
caghi
psicologo
trimestre
gabbiadini
trattati
costantemente
partecipo
commuovere
uccidetemi
danilo
nsa
ingin
grandissimi
deficit
cattedra
albert
accada
stretti
cemento
andavano
xix
##erebbe
inchino
valga
##ner
benedetti
pastore
battaglie
condividiamo
rinnovabili
js
partecipando
basketball
eternità
spagnoli
tonight
tito
grandee
tradizioni
fedeltà
pablo
giordano
etna
ate
finte
karaoke
favoloso
geo
diretti
ec
brani
hastag
graduatoria
visibilità
utilità
coldplay
appezzament
##of
prevedo
remix
##th
teso
smack
mogherini
mestre
wait
guardati
vestirmi
innamora
ciau
giocava
botti
pazienti
considero
asti
vuote
feds
vaccino
fregato
creativa
dirtelo
legga
calcolo
approccio
porterò
vergognati
modà
topi
faró
organi
egidio
deficienti
normalmente
promessi
drago
marathon
stone
##jo
sister
consumatori
pizze
votazioni
keita
buffa
inventa
##hi
conclude
asd
cacciato
paglia
creano
pantaloncini
simpatiche
miglia
feel
zo
somiglia
amara
ambasciata
haz
ingrassare
pagliaccio
classic
ritirare
birre
unfollowato
gue
adozione
giallorosso
rossetto
finirò
spritz
fiorello
ridotta
fiorentino
alibi
rocchi
angoli
assurdi
culla
unesco
sperimentazione
automaticamente
asociale
ecommerce
sic
progress
togliendo
##my
raid
##gna
nuvola
copre
addicted
vabe
insubria
perversa
##eró
bukowski
giretto
better
riprendermi
bugiardo
prenotato
maggiormente
familiare
ambasciatore
proiezione
gov
penne
hoje
mò
offende
ità
baffi
mihajlovic
pdf
tyler
citare
risparmia
piumone
malgrado
ispirato
greet
fascio
lovers
guardarla
viceversa
parleremo
sporchi
barcelona
acciaio
demo
frontiere
fisse
universitario
morì
##ine
dimostrano
negramaro
quaderno
scudetti
singole
saprai
ruoli
jane
cuor
metterti
##ello
vestire
jay
divergent
sconosciuta
basa
##pro
bastato
darren
consiste
ritwitta
coerente
tipe
bottiglie
diventate
residenti
parchi
governor
filmato
chiamava
miliardo
efp
capirà
stones
jake
sorge
oliver
lino
migliorato
corrono
##nda
server
barça
straniero
stupro
dirci
succeda
marmo
vegan
pianoforte
siempre
andrebbero
key
pregiudizi
gamma
fp
venne
abuso
coreografia
pagamenti
mercatino
veglia
toscano
quiero
proprietario
fida
##ese
luisa
tributo
fumato
carolina
scuro
determinazione
preferivo
aggressione
splendidi
stabia
##ndi
grigia
fui
addormentarmi
nostrum
tolta
bocciato
ottica
celeste
ashley
samuel
chieti
accettano
attaccano
boo
espulso
gomorra
riscaldamento
invalsi
bradley
lavorativa
rifiutato
michelle
##bar
fili
lampada
circolare
falò
networker
davis
telefoni
capiamo
default
continuato
aff
alfonso
sugo
emoziona
ignorare
mediocre
self
costumi
schumacher
scesa
evasori
federer
zaza
madia
nobile
maiali
valuta
basse
artistica
accendo
sollievo
introduzione
devastante
agonia
minimi
natalizi
hunt
##fanizza
nomination
antichi
impiegato
angelina
salutami
skins
##trici
dimesso
asse
produttori
domeniche
stronze
loco
rotti
diffusione
donatella
giocate
arriba
getta
lawrence
prenderla
##vita
capisca
sorta
olandesi
dirigenza
creativo
assolti
riusciremo
fattoria
convocato
alternativo
##tina
mandando
schifoso
postale
parodia
raccoglie
merci
capitali
beer
mattine
##ko
autonomia
sfiducia
difeso
tags
champagne
sparisce
barletta
lavarmi
sentenze
suocera
coupon
regalate
colloqui
chicco
##mm
abusi
lombardi
denunce
tunisia
salvati
festeggiamo
gaffe
recessione
complice
banalità
tenersi
cattolici
ticino
fvg
dispiaciuto
esa
scoccio
##ck
shit
crollare
dont
hahha
depressi
editoria
motivazione
informato
mission
vivete
chigi
angoscia
cieca
series
attaccati
interni
battito
suggerimento
guerrieri
ribelli
rudy
mulino
derek
disa
universitaria
muti
bau
sentiva
maglione
mediterranea
ternana
rieti
laghi
scientifica
sit
amour
hobby
contra
washington
giovinezza
operazioni
tenermi
cha
furono
scalda
turista
##ancora
insonnia
mandami
toccano
branca
cieli
epic
##teli
hehe
fly
jong
gl
eric
tf
vabbeh
visibile
civico
marini
fermiamo
tà
bolle
approda
inevitabile
busto
aggiungimi
floris
depresso
darle
leggerò
away
svelato
meritare
resisto
parete
inviata
zerrie
cooperazione
lontane
crostata
rappresentante
lanterna
naya
renga
venere
selezionati
distruggendo
afferma
cin
ingiusto
block
erot
digiuno
richiesto
celebrità
##ndolo
presta
ricevi
ricordando
brodo
debutta
cabina
restituire
supplico
dimenticano
materiali
formigoni
orientamento
alimentari
admin
defollow
scongiuro
trovarsi
imola
accogliere
bale
iscriversi
mockingjay
pompa
mangiata
bocciata
opening
guidi
inaccettabile
squillo
##mia
parassiti
##gg
alt
saprò
speri
giapponesi
attese
risoluzione
national
condivide
aaww
commovente
coincidenza
didattica
pagata
chanel
gobbo
cantone
macchinetta
igienica
chirurgia
sella
sports
fritte
favorita
gradito
seguivo
illusioni
soul
##sia
nuoce
urbani
callejon
provvedimenti
investimento
infinitamente
##nu
accoglie
rimettere
mondi
swag
##vate
preda
politecnico
rimborso
movida
carrà
cià
##ol
##comunque
andrè
daresti
incolla
seconds
pregate
visioni
bimbe
eccellenze
minorenni
caspita
augurare
##ad
##etta
salgo
dem
telefonico
definito
bersaglio
indaga
reina
dress
eddai
guasto
mafioso
alieni
infermiera
logan
cafè
temptation
gruber
juara
fiumi
altare
hah
seghe
aiutarci
tifi
fs
negativa
om
studentessa
romina
capiti
comici
soffrono
scrivevo
blocchi
sposati
rubati
eccellente
applicazioni
caroline
pillole
fusione
ione
rendermi
lombardo
ign
biella
ciuffo
money
tavoli
##sc
##ps
arrende
trigoria
attenzioni
lamela
affronta
milanista
indovinare
informare
consegnato
disastri
ammazzare
cera
raggi
change
togliete
parrucchiera
delegazione
staremo
rinuncio
sfila
mollato
view
consapevoli
lavezzi
licenza
annuale
artigianale
abbiam
diffuso
ogm
valsa
volerti
slitta
eredità
riuscirci
assicurazione
mind
scoop
romanista
arcore
cortile
mancati
picco
ford
piacerà
associo
cittadina
blackberry
disperati
menzionare
saperne
jade
parata
detenuti
irpef
focaccia
accadde
rimette
maddalena
insegnamento
totò
jaja
iscrivetevi
capitata
scendi
seguirà
sostenitori
prospettive
ambrosio
accesa
bs
chissene
rappresentanti
verdure
costiera
nipoti
colorato
mucca
tredici
paragoni
reign
gps
contattare
dispetto
trascorrere
medioevo
orgasmo
troietta
monumento
ultrà
vitale
anticipato
emilio
perderti
ahahahahahahaha
##harry
arriverò
meritocrazia
harmony
trattano
partecipi
comprarmi
##online
renziani
ram
frocio
psicologa
penserò
promossa
creatura
rossella
fottetevi
##fo
##rmene
cago
##dal
panza
hamburger
bondi
dua
commentato
lamborghini
amy
componenti
contattatemi
renziacasa
funzionato
fred
certosa
terrò
nadal
##nz
favori
stories
nominati
visitatori
isti
litigano
bellino
ic
daranno
dicessi
audizione
mobilitazione
terzino
still
mezze
crew
sorpreso
ban
edward
cafe
tornerai
guys
##nia
presenze
ricevo
farfalla
scriva
katniss
zingari
schiavo
xo
buffoni
dipinto
duemila
##ù
chiarire
violenze
room
battisti
gargano
patrick
violenti
##by
priebke
welfare
nintendo
disposti
dimensioni
volersi
sentirlo
##net
##em
riferisce
mazzo
ria
zii
loggia
fissare
delude
giocata
potevate
rovinano
pii
utopia
stampo
alzando
rogo
riferisco
loris
olbia
piaciuti
occidentale
mimmo
fiamma
gialli
ferri
albani
trani
##and
ing
cinquanta
sciarpa
kembali
muntari
comportamenti
barra
tubo
##lou
yess
bloccano
frozen
moviola
fissato
fuso
lati
interrogare
soft
progressi
##ter
semo
sognano
smalfer
puttanella
occupata
recupera
milanisti
allegra
mettiti
aca
parlavano
urbano
force
tene
puntuale
session
accusato
suonato
segretaria
##nno
##gia
lagi
discriminazione
rossonero
shippare
university
abu
menzione
incazzati
candela
pina
erika
monday
fifth
promosso
occupando
fotografare
registrare
bay
occupano
bruttissimo
arancia
usiamo
scambi
vocali
subitissimo
aja
disciplina
hahahahha
cameriere
giancarlo
sparatoria
offese
capivo
mass
yoyo
nude
predica
english
usarlo
verificato
meu
bravura
horizon
cariche
porre
ricercatori
tondo
distante
preparata
guest
maker
usb
pacchetti
barzelletta
pranzare
tokio
tube
fil
annoia
soo
priva
luck
wo
nate
impedisce
edoardo
andatevene
chrome
comoda
sorteggio
riposa
mib
##ze
rain
amnistia
scoperte
argentino
leghista
urban
gravemente
reja
interazioni
metterla
##viaci
concludere
lí
trevi
cry
prescrizione
rivincita
klaus
moriremo
fonda
turistica
fotografi
bee
votando
thiago
infantile
richiamo
alquanto
conf
diversità
metodi
cantava
cute
sebastian
cdm
trasferimento
lascerò
vecchiaia
##costituzionale
aiutando
arrendo
risponda
spi
conoscenze
montana
invii
summit
dissi
nodi
passerai
silva
pacchi
guardata
giubileo
puntualmente
principalmente
vercelli
trascorso
termale
anziana
gela
mons
fregare
scendono
senta
tosta
fco
lgbt
arrossisce
errani
infortuni
sà
votazione
lottie
bacchetta
zapata
famo
miti
sedi
living
danimarca
adidas
rilancia
corriera
savoia
sputa
miriam
originals
floyd
incondizionato
metterà
contrasto
pokemon
modificare
oscura
fanpage
bolla
foglie
schumi
disagiata
severino
francy
##hh
station
curiosi
turni
pareti
massi
positano
abbonamenti
henry
massacro
giudizi
rivelazione
sensuale
confermata
fortemente
lucidi
rientrato
madison
dimettersi
morsi
gua
pali
tela
tizi
capiranno
ottava
pericolosi
##sempre
entrando
kong
triplo
sclera
medica
dimmerda
detective
rincoglionita
poggia
liberare
fortezza
dente
sorridente
coppe
esulta
butler
topolino
raramente
borghese
fuggire
docente
death
piccina
tradurre
confessa
calcetto
gender
ragiona
settori
bisa
primato
brilla
##wa
##lia
##bbe
bolognese
goodnight
stalking
francisco
strutture
vesto
forlì
delega
minaj
regna
angel
omnibus
ahahhahaha
cenerentola
bollette
probabilità
nomine
##all
##uno
##così
monopoli
affianco
tarocchi
appeso
dedicate
osteria
spiegarmi
limitato
torri
greca
lecito
ingegneria
cuffiette
manuela
arabo
parolacce
dolomiti
unicorno
annamo
ua
sposata
guarire
coprire
##nna
comprendo
dilemma
favolosa
strepitoso
potenziale
api
detti
benedizione
paesino
campa
ehii
accolto
tentativi
bara
##love
kat
round
gianna
datti
amava
sfuggire
volontaria
prestazioni
onorata
isla
recenti
primis
status
marzio
editore
sconfitto
separazione
residenza
sportello
strappa
las
spunti
generi
sessuali
soffrendo
##zze
sprint
addormento
abbattere
tommasi
country
barista
nadia
crimini
corridoio
cogliere
bll
gin
percy
##sce
cioccolatini
rafael
degustazione
pirati
dizionario
rimedi
antonello
bien
insegnano
colpita
rosica
ski
clari
dominio
infiniti
rata
imposta
aforismi
pemain
artificio
verdura
seguente
balli
guru
camper
avverte
marcuzzi
dormirò
eugenio
saviano
scorsi
diocesi
chieda
bloc
organizzando
greci
runner
pagliacci
impedire
possiede
reggiseno
vampiro
nascosti
qualificazione
tragico
assicurazioni
autografi
contattato
sparita
volerlo
comm
sentir
concede
scie
spargi
tro
guardava
buonaserata
remember
destinato
bile
scleri
commentate
unicorni
##cca
silver
smarrita
mv
law
santuario
menez
valley
##ver
thor
affezionata
microfoni
crociera
happiness
##rebbero
ssa
depp
pigra
risorsa
mashup
impiego
cilento
viverla
arci
prince
display
vals
bacini
esterna
levati
shippi
esibizioniste
deprimente
delena
gironi
tuitter
delrio
dreams
##dis
recapito
ftse
graduatorie
spaziale
scordato
galli
##ica
sapevamo
ricordiamoci
olive
rinascere
ideali
ribadisco
fdi
cazzeggio
company
tettona
pregi
dwwa
fidi
##lab
gadget
vole
rotolo
kik
immediato
missioni
itu
borsellino
diventerò
rendimento
tvoi
avevate
pollice
scioglie
presentiamo
leggerla
kiko
festività
operativo
contraria
ommioddio
mento
angelica
festeggiato
perdersi
main
zampe
respiri
sfruttare
ros
abbandonati
##ls
scanzi
cicci
parlarti
solista
mariano
cacciare
stili
gracias
pubblicate
yu
juvee
taormina
balzaretti
ranking
ballerino
pubblicita
premiato
esclusivamente
creata
vigile
oii
##ismo
scrittrice
valanga
sciglio
target
camino
grappa
avvera
brioche
women
scarsi
milito
cf
telegiornale
nibali
precisamente
esisti
tecnicamente
elogio
faraone
correttore
platino
cons
sappiano
troverà
urgenza
continuità
confermare
giovanissimi
##fare
chiamiamo
guance
garantito
contattami
##fe
macerata
mangerei
trattative
timido
preoccupante
sora
tot
amorr
preghiere
pagherà
piccolino
rosi
distanti
straordinari
scopriamo
ceca
pomodori
bergoglio
ulteriore
chiesta
bikini
starai
elemento
fata
pressi
attuali
##haz
##oo
follback
loredana
bretagna
ballerina
##bella
venditti
##ona
diploma
lug
cresci
haters
nando
ricordarti
rappresentare
legame
bastaa
hall
imagine
avengers
delicato
chapeau
considerata
training
##amore
once
imperia
tisana
prada
cominciando
vesuvio
rimpianti
universitari
successa
stu
dossier
salmo
delusi
entriamo
odiate
kak
##due
move
diary
artigianato
accontentare
unete
andria
tan
mono
eso
apr
superstar
veo
convoca
giungla
svolto
instant
osservare
cambiarlo
prati
colpire
rimanga
televisiva
tuscany
caserma
zumba
pagella
short
##ggia
spezzato
impariamo
campano
tevere
tea
##cia
usciranno
vergognosa
mercurio
salsiccia
ragà
commerce
iris
celebrare
satana
scattata
distanze
suu
conferme
denunciare
capa
impossibili
schemi
##cco
macchia
centenario
rino
parlarmi
terzi
##ita
meredith
ostacolo
proponiamo
simboli
bha
pratiche
rovinata
grr
concert
qe
fit
juncker
resterò
espressioni
brasiliano
breakfast
permanente
roccia
ordinare
davano
ciaao
ken
salame
idol
cotto
bastarda
##lina
finiamo
rappresentano
iss
sosteniamo
dirla
mona
religiosa
segnalazioni
cedera
interrogato
preferiscono
half
insaputa
sco
igers
scoppio
branco
rompendo
politicamente
done
scelgono
adige
omicidi
award
assistente
cazzeggiare
disabilità
muoversi
salgono
spade
jimmy
equal
contrari
lamenti
##stica
maps
ht
velvet
tommy
contiene
##ggi
camminando
rotoli
disegnato
diabete
guarigione
giustificare
spariti
letizia
acquario
ndo
aba
serracchiani
fondatore
denny
litiga
tares
##cce
addormenta
epico
benesse
montezemolo
jesolo
cult
dirmelo
blatter
blood
##nze
sentirò
litalia
irpinia
fava
mitici
scivola
civitavecchia
amedeo
patetico
prenotazioni
entry
unfolloware
feci
estera
dv
kai
fasi
rumors
affida
bambola
stufo
polenta
approvata
suprema
lavoriamo
##eva
bloccate
michelangelo
firmate
reggere
##nelli
brad
##rella
lorde
durato
specchi
frena
selezioni
leghisti
profondità
cominciata
discussioni
lamezia
triplete
osa
iata
incapacità
lampo
stancata
puntini
centrali
patti
festeggiano
##ore
allena
fia
presentati
prefettura
estetista
porge
padania
costanza
sciogliere
##glio
meritarmi
rinnovato
guardiani
wattpad
gioiello
##dited
modem
tradotto
original
marine
million
innesto
coinvolti
hipster
attira
cel
assaggio
sfiora
fig
sla
mise
laziali
sconvolto
titanic
corrotto
esagerata
osservatorio
ostaggio
chiamati
##mar
mogli
tottenham
infami
gemelle
##micron
rebecca
scoccia
estivi
cattedrale
provinciali
##rmelo
ampiamente
emanuela
veneti
leto
collina
complici
siviglia
suicidi
facevamo
testata
bue
sott
imparate
lasciarti
cod
##san
uccelli
necessita
fulmine
festeggiamenti
nuotare
riempito
resistito
slide
##niall
ugh
duello
eccovi
villetta
trending
ricostruire
armato
debbano
champion
rating
zaia
cambierest
ast
avervi
esperta
costato
charlotte
bisogni
##siamo
stammi
##ts
attack
iscrivi
seguiti
vincenti
liscio
rick
sublime
tiramisù
fantascienza
protetta
cagnolino
stamp
marianna
nfl
ricordarsi
spuntano
scazzo
indicazioni
naufragio
saturday
basti
hub
turco
vivamente
equivale
coco
schifosa
jace
ori
twittami
isa
melanzane
disinformazione
mertens
disoccupato
capirò
cavolate
confido
fritto
waiting
laser
trattoria
gabbana
previsione
sostituzione
nerazzurri
divertitevi
procuratore
specialità
letterario
freud
redditi
drone
elia
hanna
titolari
bestemmio
esagerare
hannah
rilanciare
sabe
word
soffri
banali
femminili
sinonimo
chiacchierata
abitudini
versa
baru
vieta
bastare
lune
spin
panca
collins
##mer
difensori
potuta
pirelli
vicinanza
esterni
piaceri
lione
pizzico
colorati
lavo
parente
##ic
sembrato
romanzi
arrogante
palvin
ara
rifarei
carlos
order
staranno
delibera
##voglio
azzi
vd
manifesta
alleati
arg
tagliata
walker
spallucce
magistris
cintura
bollente
trasformazione
monta
professionali
unf
rebs
bvb
rendersi
##rin
pisciare
legali
bellini
anne
macklemore
promozioni
rimaste
cdx
mexico
##lini
bilanci
vasto
promise
etichetta
cooper
totalizzato
commuovo
coldiretti
economiche
cantù
rendiamoci
intensi
babe
ms
certificato
##book
tp
tca
riscontro
schiava
trasmettono
balletto
punteggio
xdxd
navigli
bluff
winner
conosca
picchiato
djokovic
arancione
determinato
arabi
parentesi
ehehe
dicesse
tao
comprata
stò
aspettava
leon
respect
musicisti
appassionato
parteciperà
leggins
accetti
ric
unire
iron
pedofilia
jen
sparano
alleghe
lm
complessi
calabresi
chuck
scelti
##br
mappe
carrello
tay
peeta
scappano
disturbi
lippi
prov
intenzioni
shaqiri
incontrerò
mantenuto
statuto
avvenuto
marsiglia
colonne
preoccupo
condotta
ritirato
sbatto
tuttavia
second
ace
muovi
esodati
sintonizzati
riferisci
corrotta
dormite
dublino
corn
programmato
watson
ily
spaccio
ars
vigore
profit
minecraft
difendiamo
erbe
azzeccato
seguaci
alimenti
rubata
ridete
assenti
scorrere
bring
trovavo
confesso
domicilio
manderei
barriera
prostitute
##line
rinviato
was
togliermi
caxxo
oltretutto
scappato
orlo
amarla
instore
negato
protegge
hong
rallentamenti
striscioni
telecomando
elkann
rif
noche
sudore
mammina
grace
imparando
manifesti
lin
foglia
lascerà
inquinamento
andartene
feccia
olandese
provocazione
schifezze
bundesliga
occhiaie
xl
suore
linate
##ura
aumentato
cards
conor
registrati
##ft
avvisa
afghanistan
consulenza
jacopo
inganno
concentrazione
sandrina
estive
xké
paesaggi
traditori
##senza
##noi
yara
nature
flam
permettono
perdermi
prendeva
monotona
naruto
sfruttamento
intercettazioni
budapest
preoccuparmi
crepare
sabati
jason
kris
ettore
spunto
darmian
costringe
risale
dg
palme
dilettanti
hell
uma
intensità
taanto
miglioramento
abete
granché
femminicidio
rivolge
cometa
okey
obv
idi
buttata
oil
##ire
tremila
lottato
##sen
cooperativa
inflazione
rimarrai
resisti
piangevo
mahone
spogliatoio
stringere
machine
esistesse
coe
apparenza
occhiolino
ghost
sicily
uhh
ahhahah
awh
ricomincio
marocco
lastre
amnesia
##bus
prenderci
rispecchia
igt
eutanasia
omosessualità
preoccupazione
permetti
preparatevi
rimandato
sistemato
spettacolari
consuma
proverbio
ahahhah
##erete
shoes
celtic
hahahahahahah
percezione
chicago
assunto
veltroni
lamentarmi
democratici
cami
senior
scoprilo
dividere
rush
jolie
caressa
guardarsi
assaggiare
terminata
renda
##buona
hihihi
dolcetto
leggevo
okk
##bello
organizziamo
budget
masterpiece
soffitto
vía
ginocchia
parlerò
caffé
grotta
costerà
contribuire
vegas
futsal
##caminada
camminata
fotomontaggi
proroga
scherzano
adl
repliche
anza
fiere
moi
scegliete
invernali
radja
reputazione
osservazione
xperia
spostato
lasciarlo
jai
collettivo
cenone
pigrizia
cavi
farage
tomorrow
nominare
fivb
merce
sofferenze
neuroni
manicomio
ricatto
radice
ajax
colla
##du
cenere
ihih
xò
gool
dirige
zuniga
geordie
leccaculo
les
copione
alè
##sy
csm
vaso
equo
buzzi
exit
pakistan
vamoss
caldi
sedute
cook
diamante
surreale
vicepresidente
corrado
pentito
terrorista
insiste
barattolo
loreto
novella
dmax
ammore
protestare
piste
verdini
sbronza
firmata
elicottero
pinterest
rigorosamente
immacolata
pupazzo
renderesti
south
xi
dopotutto
ostiense
eurozona
spanyol
pagando
woo
metteranno
intro
descrive
aversa
soffia
beyoncé
amianto
gastronomia
consultazione
ritrovarsi
elite
##relli
deals
vetri
incerto
chico
partigiani
fastweb
mancheranno
ideologia
sorprendente
esclusi
giostra
educare
gratuite
apparecchio
bianconera
tunisi
sovrano
guadagno
diano
sandra
naa
diresti
surf
format
cannella
forestale
rosicare
magicamente
fri
territori
rivediamo
liberale
macro
abb
eventuale
spider
rivede
statistica
pal
colletta
fotogallery
##im
favorito
nt
esserne
ghetto
bastone
ict
ricreazione
tragica
rimandare
dispiacerebbe
adrenalina
oriana
buondi
praga
aiutata
binari
avuta
disp
peluche
##rino
ciclisti
collettiva
tariffe
faticoso
stephen
uccello
trappola
pinguino
scandali
buh
mery
##cha
tac
commercianti
amministratore
decenti
gd
soddisfatti
fot
##lin
abbinano
soprannome
rivedrò
avviene
assunti
adotta
sentirla
credeva
chiamarlo
fregano
riciclo
##ut
polli
casale
guardatelo
rilassa
concrete
shaarawy
puzzle
mascara
rubate
peccati
quaranta
aggiungiamo
dicano
coscia
galla
tate
chiudendo
comeback
rachel
polpette
rimarrò
amministratori
simpaticissima
purché
impegnativo
##nzi
coccola
carlino
gnocco
brera
interamente
difendono
luciana
elsa
energy
disabile
##uto
aspe
spontanea
trasmissioni
trattenere
artigiani
librerie
conosciute
ripetizione
caraibi
rendendo
sottosegretario
fano
ahahh
boca
stazioni
pazzini
droni
parecchie
tranqui
atlantic
vinitaly
gianfranco
delizia
augusto
universit
marty
incontriamo
turbo
commissioni
esalta
medicine
adozioni
finlandia
scontata
straniere
bagnata
preoccuparsi
anonimi
rotte
denunciati
solid
buonanno
malore
avvia
ingegnere
cereali
inaugurato
diffondi
pensavi
golpe
ook
giuda
lauren
chocolate
pallacanestro
oblio
creando
simpy
toh
gustare
uru
uau
daremo
ttip
##nta
sufficienza
produzioni
coinvolto
cascina
islamico
godetevi
mutui
fregna
animazione
divertono
ascoltiamo
accontenta
uccise
cracco
trenord
uccidermi
consigliamo
##zia
pensandoci
nocciola
quartieri
esclusa
paranoie
grillino
##eh
riservato
commessa
ufo
nom
cyber
agnello
ligresti
tenerlo
presunto
ihi
bonifica
tutelare
cali
abbracciati
soc
fix
prenditi
alan
situa
demente
protocollo
stupore
passerella
addormentato
zucchine
scade
decisa
gratta
picchiare
alee
visitate
uwu
legambiente
comi
vestirsi
slovenia
brooke
castiglione
mediche
finn
andò
allenare
##ghe
sentiero
fam
facchinetti
ibiza
chiappe
risarcimento
consulente
mess
##nato
invasa
tavolino
giudicano
##nk
lasciarsi
shippa
rumori
arrosto
tartaruga
disagiate
asce
piaga
##bu
rispondermi
merini
intere
##ito
asino
tap
##nde
feb
ceo
dave
distinguere
##we
hill
nyc
infrastrutture
terribilmente
lunghezza
vignetta
cambieranno
sostengono
violante
crc
ahora
fca
concept
diffusa
stampare
##fu
oche
##ella
infila
preoccupati
contestato
riapertura
stressante
rifugiati
bordi
xmas
goo
##louis
animati
leg
##cio
nirvana
dimostri
schifezza
sfogarmi
straniera
rolex
arrestata
scola
meditazione
nascondono
venute
industriali
spiel
aids
##cazzo
deprimo
ferrovie
andrew
riferimenti
prepariamoci
casca
manifestare
indossi
mati
resi
deep
md
##les
connetto
riccio
fl
eng
agio
attive
wmilan
identica
accompagnare
baciano
fior
bui
lire
sfera
giglio
##ee
ridotti
umorismo
riflesso
radicali
urbana
felicissimo
raccontata
concentrati
condoglianze
adesione
previsti
islamici
raccomandata
dure
costanzo
rainews
nikon
abi
vergogni
##nne
naughty
ferilli
innamorarmi
mountain
casello
diverti
dille
kimi
sospiro
calcolato
schiera
naviglio
odiando
dovessero
rame
legate
zay
agenzie
casalinga
licenziamenti
motorino
innovation
quo
dinner
montato
illuminato
aspettarti
toc
muso
comprati
approfitto
signing
nocerina
litigate
porsche
succhia
erica
comedy
permettersi
ezio
##up
cadendo
wish
sioni
agricola
boston
amministrative
tiscali
osso
magistrato
calde
poverina
filtro
partirà
chiudete
pac
impiegati
tarda
##osa
fazzoletti
##tica
marconi
senigallia
storify
provvedimento
sindacale
ergastolo
tassazione
pubblichiamo
muoviti
laguna
accadendo
past
mami
premiati
pareggia
bela
spirit
salvate
stecca
pisello
regalino
vedranno
istituzionale
rappresentanza
##cchio
carmelo
variante
rinnovare
sbarchi
pavese
factory
feliz
michi
##zayn
alzati
zenit
saccomanni
ciechi
decimo
satellite
gravissimo
gear
##ture
emerge
dirai
juga
misterioso
escape
astro
lindo
alvarez
mexes
comodi
nazisti
sir
perdetevi
phil
tell
calm
bund
ringraziano
bracier
##mare
obbliga
fuffa
oscars
scherma
mandata
bruce
##melo
docet
liberato
##rr
urta
passere
pci
linkin
parmigiana
ryanair
rimosso
cado
bhè
calciopoli
costarica
cortina
corde
sd
##ku
seguiresti
dong
sposano
annulla
alcatraz
zouis
even
vincendo
ahhah
imita
spn
annoi
attivato
schema
vitalizio
brufoli
attrazione
notevole
vanta
sintomi
kids
autogol
orecchini
sapremo
scienziati
interpretare
history
staffetta
revolution
campus
lente
differenti
verbi
succedeva
tolleranza
snapchat
parziale
frode
grati
parcheggi
##ouis
felpe
orribili
pendolari
attentamente
potessero
eii
ico
presidi
tiè
meritata
picci
este
postate
carter
semaforo
cellulite
battiato
viaggiatori
confessione
affermare
soldato
##zzare
psi
cycling
fallita
glieli
giovanili
loop
invitate
words
goduria
ammetterlo
necessariamente
parterre
tipici
starmi
donald
stanze
oliva
##pd
local
hero
##ghi
gattuso
bollettino
imminente
forex
incentivi
bunga
magliana
coin
indiani
oratorio
mettiamoci
vidic
stragi
novo
ditemelo
abbracciata
ridare
sign
diciamolo
dicci
luxury
schiavitù
leadership
rimesso
battesimo
palestinesi
dannatamente
aiuola
diglielo
unfollowate
assicurato
maggiorenne
cortesemente
collegati
brucio
pony
armata
incontrati
vedova
easter
ame
vizi
scenari
diluvia
imi
mirco
##dia
specifico
leonessa
tossici
ned
valli
doro
doppi
dormita
##uu
martello
bicchieri
destinati
menzogna
carezze
tremendo
bilico
sposarsi
ormoni
caprio
accorgono
vendendo
frego
yelp
casteddu
riserve
sw
spirituale
streghe
##ap
modesto
brothers
attivare
moderati
##misterioso
gap
larryyss
lav
giochino
considerazioni
nietzsche
square
attivazione
spingere
cambiati
olè
pedro
np
hay
into
televisivo
cappotto
fallimenti
collaboratori
favorire
rompermi
salito
celebre
vojo
confonde
vatican
talia
guaio
cagando
rana
mimimi
prevendita
rodotà
ottavo
baseball
graziano
gestito
mtb
oss
eye
trovarla
evra
canile
darvi
system
asi
etico
cazzoni
orrendo
paradosso
motorsport
mensile
creative
vulcano
avvicinarsi
ingegneri
pippe
form
##bombing
tasti
composta
siffredi
filtri
scalfari
indeciso
nessa
##id
contatta
inc
disprezzo
emblem
tirate
buttano
decenza
linux
teorie
macerie
incredibilmente
algeria
genny
inattivo
##eccomi
cantik
limited
ooi
franchi
peraltro
janoskians
reciproco
egoismo
precisione
rivederlo
bed
jelena
spariscono
abbracciarli
moments
tremando
ssc
battono
diamoci
jajajaja
bava
bruciata
criticato
wp
alda
front
bosnia
matthew
scopi
thailandia
frappy
creativi
località
ciampino
istituzione
college
ellie
baldi
sputo
diviso
castan
##daftar
cominciate
incomincia
travolge
interpreta
jordan
licenziamento
opzioni
processione
sunset
salverà
azzo
smilers
abc
animato
telefona
nail
follo
terrestre
torneremo
fottiti
fotomontaggio
scatena
lele
privilegio
side
pertini
doloroso
condividerlo
tralasciando
legal
lungomare
isabella
consorzio
riempiono
preparativi
rimaniamo
soy
viagra
legend
comizio
checco
blind
falco
raffa
prevedibile
immunità
aggredito
competente
albanese
tragedie
colomba
carogna
vapore
sfilate
offri
leggerai
ipo
caz
bum
fantozzi
alghero
superficie
fabri
susanna
campagne
schiuma
estrazione
pratico
fratellino
raikkonen
ulteriori
approfondimento
ausilio
preoccupazioni
adriatico
ulisse
jersey
sputare
cornice
diciotto
finanziario
##gu
infografica
arrendersi
spencer
ghigliottina
drew
shield
cuoricini
samba
doria
battle
jj
ricominciato
pollici
dovevate
vampiri
consente
int
##post
seneca
sintonia
##bilità
rovino
ascoltarlo
imparo
divisi
angolino
ville
conad
tad
sentirci
##pre
spurs
ibarbo
rotazione
improvvisa
assegno
trekking
dottori
fidatevi
##gheria
ahahaah
aroma
vogliano
ragno
tezza
impegna
cupcake
esecuzione
female
stellino
fight
ranieri
piangerò
ku
deb
youth
##mania
quattordici
calorie
naah
radicale
asciuga
backup
melo
scimmie
lollipop
squinzi
tremendamente
pepito
macello
##star
litigi
think
sperato
tuoni
cenato
porcate
monster
chiedeva
spaccia
svuota
tempoo
coste
perduta
worry
sharon
intellettuali
skytg
assegnato
scomparire
pochissime
inaugurata
bevendo
uc
##rd
cantiamo
mandati
sembrate
pubblicati
assedio
collasso
piddini
definisce
intendere
antipasto
godersi
resterai
ballato
baggio
ferrovia
sensibili
storiche
conoscendo
ridire
carly
piccino
dtn
meets
porcata
cska
gene
superata
##yo
snob
fem
##mio
prelievo
suppongo
minorenne
appalto
finirla
scordata
riempi
sanitaria
massimi
edificio
accettiamo
conserva
pit
irrita
abilità
crack
than
tirando
##tr
ingiustizie
presunzione
waterloo
strepitosa
pecorella
correttamente
principesse
repost
marts
nov
volontario
liberamente
laureato
sentirli
ciclone
amu
cars
siani
fabi
kan
mena
vos
congo
##bb
mau
tremenda
affettuoso
incompetenti
svizzero
ragù
scaduto
tassista
attaccanti
orologi
mozart
iya
forni
dating
negro
##nes
calcistica
galline
ripristino
samantha
stereo
dirompente
litri
compact
pornostar
sospetti
jones
favs
metterli
cosce
saldo
mormora
##dy
immortale
renziano
lammoglia
storytelling
affidamento
illegali
dama
giunti
capua
##prima
gram
bancario
den
siae
tir
ani
terry
dioo
frecce
elettronico
annunziata
starbucks
comprerò
applicare
rovinarmi
allegro
toscani
cittá
##ché
etta
rd
ceci
bastasse
levate
##gh
manica
custode
biografia
prestissimo
dimagrita
campanella
sappiatelo
##gdf
ricordarlo
popcorn
hahahhaha
leggerli
##rina
metteva
lambrate
autostrade
badante
tradisce
morirà
inutilmente
autismo
kristen
##elli
logistica
annoiata
lavi
gattino
minha
bozza
orsi
norman
eyes
stende
idiozia
uragano
intento
gabry
scioperi
dalai
orrori
infelice
sbk
shawn
correnti
vederle
turca
rimanda
books
cna
moralisti
lovatic
oops
##stra
identico
bangerz
vinti
chianti
dallas
evan
sembrerebbe
emo
turin
extracomunitari
rosberg
vorrò
vocabolario
ungheria
hamas
costituzionali
scop
molliamo
chiedetemi
ammazzato
tant
qualifica
gogh
apriamo
uffi
anita
ppe
parzialmente
rifatto
blaine
condivisa
apostolo
tiziana
##iano
crepa
tagliati
aggiungete
mg
gucci
tetti
ak
mat
british
estetico
raccordo
spinelli
diventiamo
kpop
buttarmi
menzionato
rolando
eccesso
sma
eat
toy
epifani
tombola
wanna
catastrofe
vorranno
traduttore
arbitrali
muto
userò
progettazione
##ndipendentemente
correndo
permetto
dementi
dimer
difficilmente
ballerini
conciliazione
valorizzare
chilo
psiche
asp
snai
critici
edifici
##shtag
ista
incula
silvestri
amika
entusiasta
prepariamo
sbocco
vescovi
toglietemi
esultare
boxe
scuri
peggiora
urne
requisiti
fellini
monumenti
indiano
risponderti
prr
latorre
atp
trenino
inquieta
version
assicura
msg
pranzi
inediti
gentiloni
scorrimento
audizioni
sfoglia
ascolterò
skuat
stranissimo
conforto
gallipoli
venditore
profeta
connessa
seme
mangiati
num
scriveva
morini
nnt
eventuali
drammi
causato
##rdi
pareri
dispiacere
arca
##etti
spiegano
minetti
manina
riconosci
##questo
ampio
dipartimento
##dai
giorgi
silicon
filosofo
##chè
suv
sopporti
##poli
bruciano
assad
varia
ultimate
finanzia
wolfsburg
cupola
attraversare
eliminata
cacao
chiederò
alberghi
##tico
ricorre
adori
crollano
entella
demagogia
retroscena
wrecking
miguel
sorpasso
sentinelle
alive
dimenticarlo
piacevano
falliti
ladrona
scontati
votata
moschea
meccanica
perderò
profondi
str
japan
fattore
canalis
dò
sostengo
preliminari
carburante
tanpa
rinnovamento
podolski
aiuterà
ordinanza
menzionami
agriturismo
violazione
conversione
ospitare
plan
piacermi
##liam
cresta
appartamenti
carl
riuscendo
disordine
nazi
convocazione
trasformato
ham
ferisce
lovvo
dacci
invidiosi
creda
abil
numerose
successe
colonia
agguato
fcim
joseph
agitata
frittata
freschi
aurelio
ritroviamo
kenya
grandine
riprendono
##zion
##ndola
garden
quoto
lavato
ein
portarti
##uti
csi
chiamavano
rimpiango
lieta
dicendomi
map
orrenda
ospitalità
johnson
riina
lover
cappellino
porchetta
colmo
piatta
instabile
##ser
buffet
educato
guardie
appresso
fessi
populismo
prevenire
faccenda
territoriale
conduttore
vigna
siri
comunismo
##ster
puta
df
paper
##show
replay
synergie
partnership
elettrico
##cchia
odiavo
reporter
##nata
central
boi
##more
dateci
##ente
sv
animal
gelati
dimettiti
planet
salvia
ceramica
supermercati
bucket
versilia
marocchino
patrizio
attirare
italico
##usa
affitti
minchiata
protestano
##ari
austerità
penultima
briatore
bonolis
casualmente
carfagna
variazione
passeranno
omar
portatile
scioccata
svenire
perenne
romane
rum
cp
evitato
twin
cre
monsters
jon
##questa
vergognare
capital
clooney
affaritaliani
klaseme
alternativi
verrei
nannini
dp
denis
det
megan
katia
hahhaha
mancavi
frequenta
insetti
orgia
riusciva
allarga
##ny
##rano
woow
simeone
esposti
campiotti
fuoriclasse
uscirne
sorso
came
ò
marika
scattare
sofi
saltano
parolo
sydney
util
informo
cavour
inseguimento
torn
yamaha
gregori
##olo
amoor
oli
rivelato
cattaneo
nicolò
zingaretti
qualcosina
shatush
nastro
parallelo
sareste
dormivo
virgin
rovini
pretendono
galan
ciaone
cardinale
scenario
wanda
spavento
##dor
emerito
aggiudica
orvieto
marciapiede
rimarranno
piece
troveremo
rapidamente
barconi
prostituta
ijf
inventata
amò
rea
descrivi
mediazione
addict
invitata
lavoratore
tessere
fornire
comparsa
compiere
pupa
boateng
estinzione
thriller
obbligatoria
comprarlo
benedict
correggere
datevi
hug
crash
assolo
angelino
odioso
ulti
franci
austerity
parroco
stivali
abusivo
##ger
andra
sha
put
aggregator
fusa
realizzi
clap
acuti
youtuber
distacco
ballerine
romanticismo
peperoncino
bastille
##club
copenaghen
vigilanza
alaska
fatturato
mettici
sparisci
armando
gam
barbone
mother
wonder
salutano
capirete
fottesega
raffica
rei
cosmo
twittando
sapranno
saggia
##merda
scrivici
##ble
pam
schede
illuminazione
dudù
tolti
immensamente
aglio
mangerò
approfittare
indicato
ciotti
cus
piscio
scudo
stampato
eccoli
dora
mw
children
##ran
giurisprudenza
regolarmente
shoah
schianto
codici
orange
ciclabile
spine
disc
serenita
occupare
oki
ritwittato
anticipa
##erebbero
usciva
ghe
vocale
superman
tunes
prosecco
cartomante
prenotazione
pedofilo
sean
bonnie
cresima
sentieri
lotte
mezzora
federale
platini
vis
eroina
massì
ebbe
gal
xoxo
godendo
screenshot
disegna
berti
nd
ripetuto
deflazione
accadono
produttività
primario
pagherei
divertirmi
guglielmo
investitori
allergia
##der
babbani
adorato
comp
asdfg
bellina
holiday
mod
##riqualificazione
sottoscritto
furgone
imperatore
sembrerà
maiuscola
pentita
cambierò
grandioso
rispondendo
rientrata
ballottaggio
sur
sehun
beccare
friendly
coraggiosa
human
peoples
buttate
sedie
##però
salah
legittima
illuminati
emblema
gufo
universita
##use
rimpianto
donadoni
psicologico
ossessionata
passaparola
connessi
##ola
picierno
dessert
amarmi
mean
carrara
innamori
vane
sanitario
gru
filippine
illusa
precario
##house
cash
sanita
pierluigi
##cast
francamente
##mene
##ton
bass
lucky
applica
##tor
disturbare
cenno
buonismo
tatuato
sudato
uti
az
buenos
##napoli
rincoglionito
platonico
libretto
juniores
riprenditi
panoramica
tagliano
rompicoglioni
dimenticando
ossia
##ue
owh
veneta
turner
cadi
giova
tari
parlami
muoro
heii
frattura
riparliamo
zuppa
baricco
collaborare
sarcasmo
interessare
db
conference
scic
thè
ceri
volermi
cagami
chiamarti
creature
bevono
retwittate
ricevuta
moncler
rimozione
ovaie
piccioni
mollate
ty
chiarito
fidare
riprova
twitti
daria
riguardando
ur
kota
maturo
##mp
bird
augurissimi
fronti
tivoli
moderni
cartoon
cercava
poss
coinvolge
turchi
isterica
individuo
singapore
briciolo
pianura
basterà
relativa
uguaglianza
avvento
fiorella
omfg
sve
tfr
pick
saltella
invitano
studiano
zappa
zoe
becchi
navona
flessibilità
chiavari
remake
avvisato
##nese
camicie
fucking
sales
pirates
##fan
esp
##endo
precipita
feeling
biodiversità
kalo
elefante
rilascio
rosetta
dragons
tensioni
salutarmi
usura
consensi
limitata
litigio
storta
attendono
scandal
##sio
converse
liv
lewis
preparano
diagnosi
indecente
lenzuola
resteremo
espero
svolgerà
hdblog
decisiva
effettuato
rancore
perennemente
aj
lavorazione
seggi
mandarti
sportitalia
gem
spe
continuava
murray
scajola
pallanuoto
irlandese
accessibile
virgolette
reagito
occupy
eccessivo
carabiniere
seveso
osservo
sottolineare
inutilità
liberati
straordinarie
tribute
distretto
salato
allah
rugg
magno
meriterebbe
andassi
esemplare
jeremy
stagionale
esultanza
ribasso
england
barriere
passaporto
asfalto
costantino
disperatamente
adottare
plaza
preoccupi
ambulanza
effe
##tri
sorridono
renderebbe
renderti
speed
stiles
salutiamo
lesbiche
sostituito
versace
eurolega
anzichè
patetica
locanda
##tiamo
scommettiamo
certificazione
neonato
ispirata
sedersi
sasha
scoprono
gonfia
volata
audience
handanovic
annuendo
convenienza
marcatori
doping
qcc
scuderia
monetaria
godermi
fragili
kick
relativi
innamoro
erede
querela
fareste
furba
guidate
dw
informatico
resort
atelier
limoni
alzheimer
ricoverato
fiocchi
accogliente
lontananza
celebrazione
insultate
deluxe
presunta
##fra
hm
ire
rest
micio
culto
sadel
imporre
metteresti
mostrano
rimetto
##ac
operativi
abbraccerò
aspiranti
consolazione
recitazione
fregatura
vuelta
testate
invade
bandi
pubblicamente
golfo
sor
##notte
merry
seguirla
stradali
benny
yt
cazzone
svedese
resteranno
ticketone
lifestyle
mazara
fotto
parlavamo
pulite
aprilia
grana
insider
rinasce
fissi
ahahahh
piramide
pancetta
mediocrità
cassetta
nali
bam
concetti
autrice
iin
consegnare
##ristrutturazione
spogliatoi
nizza
confermano
esprimo
##art
spinto
inggris
tragitto
spenta
arrivarci
tener
emoziono
esclude
##ppassionatamente
cantine
image
mercatini
cucchiaio
salendo
binario
renz
##rappresentazione
##ista
hari
gregorio
bagnati
necessari
amp
baciami
##bel
fotovoltaico
santiago
finmeccanica
vat
nazismo
francis
selvaggio
walk
gattini
##elle
novecento
soffio
fastidioso
attraversa
schifosi
piume
tabellino
individui
smentito
casapound
rovigo
deposito
palesemente
med
everyone
incontrarli
amalfi
amelia
scatenato
truffe
cacciatore
imperiali
compriamo
foca
wc
fumano
##ico
motor
##zzato
##sì
silenzioso
mechi
mens
ezra
zelig
toronto
assomigli
incantevole
verticale
iscrivermi
menang
gak
sr
milanello
cucino
giò
aprendo
venivano
##rte
preoccupano
tip
##oh
pezzali
neto
xvi
crudeltà
scherzetto
maternità
produttore
negative
immediata
farinetti
dovuti
marsala
positività
rassegnati
sopravvissuta
abbado
joy
cantate
udc
virtuali
ragioneria
##ber
malam
##shi
zoccole
##mos
scosse
schianta
coast
riflessi
atroce
cicatrici
biancofiore
sanksi
prospetta
accorgersi
propio
doveri
batb
puntiamo
omofobi
umili
tartufo
comandamenti
massoneria
amichevoli
scopato
veronesi
winx
iniziati
uffaa
patrono
device
pearl
annunciare
##you
aumentata
altissimo
cream
aldilà
esigenze
huawei
possiate
cottarelli
##sha
blackout
trattamenti
tru
scorpione
romantici
parodi
sentirai
licenziato
##care
portava
stupire
jet
town
##ju
merdaa
magro
sicure
vaffa
torture
corrisposto
monologo
gameplay
travolto
dialoghi
bada
lavaggio
obbligata
cavalieri
senatrice
reading
montaggio
demoni
cci
craxi
ondata
wee
dimostrando
##off
acuto
lottano
oxa
spiegata
luxuria
penisola
scolastici
puff
finestrino
guardiola
wwf
paragonare
morosa
res
provini
oneste
migliorata
rari
togliamo
duce
castagne
noci
mn
liscia
follie
gandhi
assoluzione
baratro
arthur
edit
##less
mineo
atleta
sg
parlar
voterò
utilizzando
entrava
concentrato
rispetti
scrivergli
molfetta
gentaglia
tabù
avatar
spray
daniza
medievale
ruolare
sallusti
lamentare
quin
prenderanno
hmm
##schi
fogna
estremi
svolge
starebbero
folk
rumor
itali
seguirlo
lucas
raccolti
sconcerti
##buon
manovre
piccini
bivio
salvataggio
ritmi
juventina
rassicura
pinotti
comodino
edge
seguiranno
dame
aggiorno
cancellati
antiche
riguardano
ludo
sberle
garanzie
preventivo
doumbia
coordinamento
tripletta
head
chiederlo
bacii
chiederà
##ul
guasta
ces
fagioli
##ami
lentezza
fidarmi
appartengono
gabriella
nuovissima
sing
ninna
agata
modica
##anno
modern
berlin
leggiamo
##ji
##lino
raddoppia
##ness
pisolino
opportuno
lisci
baia
morrison
incrociamo
revenge
lory
aus
outlet
biblio
hostess
hj
misha
apocalisse
malapena
fabbisogno
jailbreak
ostuni
peppino
bulla
dinosauri
graffiti
cookies
custodia
strappato
lima
fallaci
##smi
his
greenpeace
lennon
bertè
captain
compleanni
papá
recentemente
##mme
riceviamo
armati
multipla
sopravvive
operativa
rtw
tentata
##delle
asus
richiama
ballano
interprete
##sul
fireproof
scomparsi
sollecito
pensionato
fidanzate
diesel
ariete
capogruppo
##domani
geniali
cercata
theo
##pelatih
raw
arrivino
bollo
vietnam
ricambiamo
asdfgh
qlc
seleziona
triangolo
compromesso
gilardino
paramore
parrucca
daccordo
dubitare
finalisti
cds
registrata
terrazzo
stock
narnia
otrat
##nni
veleni
##nc
semifinali
giudicato
scopano
##ali
debora
imposto
anonymous
ogbonna
zamparini
alberghiero
stancato
meccanico
eleganti
bonera
fakta
finisse
funny
urbino
obbligato
security
nubi
muriel
ringraziato
corrisponde
stef
bruna
inviate
mom
hugo
abbinati
zu
spacchiamo
aggiusta
arrivasse
legami
nasceva
xxii
bleah
vicende
confess
terreni
platea
dinamica
fischia
marroni
illustra
lavigne
pif
lia
implica
commemorazione
florida
stupito
ironica
sbarco
restart
monkeys
quadrato
sch
nih
abbandonano
staccato
chiedersi
inchina
dirglielo
vocazione
taddei
governato
timnas
componente
imitazione
istituti
originalità
superiorità
nanni
roman
circondata
licenzia
ritrovati
vanto
restaurant
gioire
bowl
feder
malesia
##rsene
adorabili
convinco
centesimi
cartolina
capolinea
stabilimento
zie
imitare
avvenire
vitali
abitua
sciare
##foto
mediocri
nicki
##ph
corner
paulo
chè
dalam
calmata
fette
zocco
superano
president
sciolti
potenzialità
sottoscritta
omofobo
dispositivo
colossale
truccata
litighiamo
scivolare
ciu
dop
pronunciare
jb
festeggio
barone
buste
inviati
plebei
gm
anchio
rughe
freddie
teatri
utilizza
track
chirurgo
richiedere
rizzo
marchetti
sequestrato
psv
vlog
polmoni
##ron
ciabatte
fognini
separate
maldini
religioni
abbracciarla
##perchè
campare
alma
ingaggio
aspettavamo
scoperti
##rra
coraggioso
nat
abbatte
owo
accoltella
negri
creazioni
odiosa
solari
cartelli
baffo
germanwings
globalizzazione
ritieni
piovuto
sbattuto
ultimatum
monnezza
crudo
mediatico
##ir
cortona
everything
prepararsi
modificato
dirette
##rosa
scassa
meazza
mature
pessimi
esisteva
wch
neuro
stamo
renza
coraggiosi
simple
provata
caravaggio
renault
ciambella
magnifici
innanzitutto
compassione
siap
sportive
milena
##dell
cortese
senna
zampa
martiri
flora
sindone
##tene
name
theory
supporta
vin
##oso
bassano
condurre
conigli
pagheranno
contentissima
rapido
bucato
stime
salario
giunge
grato
mosso
gestore
riassunti
buat
cubo
trasloco
architetti
reasons
approfondire
cancellata
impiega
crollato
fiscal
alzano
separa
quaderni
farmelo
ricevuti
spontaneo
tzetze
ciclista
playback
antologia
snap
occuparsi
freddi
pubblicano
##ville
salari
italians
viventi
semina
casal
fiaba
svendita
raccontami
eight
vabbene
tic
contestazione
avra
pittore
nazista
##alafil
deludente
incontrarlo
cartellino
millemila
togliersi
confezione
finche
capì
vergognarsi
legna
favor
tremo
moltissimi
verbale
magnitudo
alfabeto
datagate
pesare
condizionata
composto
doveroso
vedersi
cambiasso
iniziò
giocattoli
vico
raccontate
jeff
lp
razia
sbarra
lamentiamo
double
posticipo
punteggiatura
mediatica
formiche
esatta
mandarli
picchiata
assi
contorno
angels
curia
connette
pensarlo
foste
pasticcio
sveglie
vda
eleggere
nr
carciofi
teoricamente
##cam
carinissima
content
sfascio
venduta
giulianova
pellegrino
creati
sfonda
##nello
flow
lirica
rimuovere
zuckerberg
sacchetto
cialtroni
andassero
shooting
cacare
provocato
mortadella
annata
amerei
accelera
oasi
cuin
frate
trovando
testamento
sob
legnano
carri
rincoglioniti
ritiene
buongiornissimo
fragilità
barcone
fucile
colora
frequenza
miglio
incertezza
tara
chissenefrega
source
meraviglio
farmaco
profe
pleasee
armate
##ete
cipro
monitor
raggiungo
socia
misteriosa
malafede
abitazione
##bra
delicata
tabella
commessi
cerimonie
immaginario
pieve
dimenticarti
grigliata
girata
calice
distruggono
##rtelo
sequel
sfoghi
sapersi
rifi
leggeri
guardavano
collezioni
sceglierei
degni
rutto
noel
lette
spaccate
falle
pomeridiano
piadina
gestisce
significhi
pessimista
venecia
aderito
nettamente
nipotina
tavole
rapito
incoraggiamento
scherzate
cojoni
alieno
romance
caldoro
incrocia
sentiremo
presenterà
scappata
servita
##ling
minacciato
misano
fiesta
nas
facciate
baroni
portarlo
dolorosa
indimenticabili
giveaway
pereyra
centrosinistra
cottura
palestinese
pressioni
sagre
esagerando
vecchietta
licenziati
dany
gui
lunch
nesse
seconde
reciproca
clamorosa
ebraica
jorginho
montecarlo
crusca
dannata
restituisce
pandoro
uscirò
difendi
pantani
franz
hein
dovunque
capitalismo
gubbio
targato
idiote
tirata
aliment
gs
reset
patetici
offensivo
feedback
petkovic
giuramento
farnesina
celebrazioni
sensato
cestino
puntato
giurato
standing
installazione
paoli
tin
partecipano
ix
croz
anticipi
vincent
gratitudine
cavolata
precedenza
umido
frascati
raffel
sessualità
tifosa
lord
contiamo
madama
aut
corsia
cattura
##grande
veni
saltata
dodo
pipi
silenziosa
pato
espansione
rivelazioni
cliccando
fiocco
frequentare
nubifragio
fassino
ritornato
condanne
tagliate
credendo
##lui
retwitt
piacciano
urli
sfrutta
riflette
elemosina
superficiale
foibe
bergomi
bancarotta
sportmediaset
campionessa
impegnativa
lloyd
##bs
ludovica
stampante
pucci
ann
netta
eb
sentirei
beene
quii
arriveremo
venditori
memorial
costruisce
scopate
lau
sviluppare
kendall
archeologia
finanziare
messenger
parade
##au
conoscerlo
##racconta
perdente
##ngo
condannata
##af
schiavone
lieti
giga
rilascia
##dove
irresistibile
snooker
ritornello
superficialità
bossetti
motorola
ringraziarvi
improbabili
darebbe
camillo
##oli
carote
##nzo
capacito
straccio
visco
twittano
funzionari
petiz
ecologica
curato
giove
poveracci
vendemmia
##pes
drammatica
oscarbadoino
vignette
drammatico
pulisce
push
tranquille
convivenza
dolcissimi
fottutissimo
buffo
mais
lucida
perugina
danze
signorini
brr
drogato
geek
scordare
spessore
task
brando
secchi
yakin
teneva
fissati
cattolico
scissione
precisazione
dinosauro
energetico
consecutive
##gni
deludere
##den
aires
palmo
spaccano
renderà
wiki
sirena
araba
pregio
burger
sima
##lly
perseguita
gana
lotti
maglioni
respinge
cadaveri
improbabile
inguardabile
release
squarciagola
tifoseria
arrivò
prendersela
collego
dorata
rimpiangere
cammin
pregato
genius
luhan
fur
ahahhahah
chan
search
##nce
inventano
followings
##bio
pallee
cut
ferlito
glutine
virgilio
filiale
etichette
hmatt
bear
pesantemente
continue
##box
bet
rise
deliziosa
vetrine
eccetto
africani
armenia
##emo
lux
farm
tappo
timberlake
niccolò
aderire
confessarti
pressing
adulto
applicata
pensavano
dispersi
rime
clary
girava
gordon
indizi
teenager
scontrino
sitter
gogna
alvaro
##alle
speaker
dazebao
provvidenza
sgombero
concezione
chiamerà
allergica
solleva
tifiamo
mxp
finiranno
mundi
avvisare
proprietari
russe
iostocon
principino
##car
acea
luiss
ricavi
skor
##ante
##mon
perdonato
og
filosofi
distrutti
neh
smetta
prostata
fiaccolata
ambientato
azzecca
miniera
woody
lividi
incarichi
stufato
fatela
hook
sleep
titi
moriva
delitti
affetti
salvatemi
letargo
valtellina
goodbye
acacia
accennando
fecero
freelance
stressata
avvisi
potermi
##erts
credetemi
guidato
fact
agri
quadra
carol
sat
##lavoro
cave
fossa
drogata
mestieri
poverini
##fer
versato
violino
contando
rapine
batterie
cata
turn
jess
formaggi
rialza
italie
libre
##tur
ladra
vecchietti
sbuffa
cremonini
falcao
conosceva
melodia
affluenza
esponenti
registrazioni
colombina
accettabile
eliminati
ferroviaria
lun
patron
infermieri
fortissima
aggiungono
sparsi
contribuenti
differente
##culo
domenicale
fish
brillare
pregiudizio
clic
sims
##ris
mettetevi
sanchez
solletico
inizialmente
voluti
martinez
abbracciano
leggende
cassino
conduzione
copio
beko
risponderò
generation
spiegarti
bingo
evitiamo
incanta
dispensa
boxer
esistano
capiva
tentano
bin
ambientali
bray
inaspettato
multinazionali
caloroso
vanity
furious
esaurimento
soccorsi
sirene
cappuccio
banchetto
zion
granti
smettono
quotes
sciolgo
bagna
bonaventura
confcommercio
kolors
celebrity
verifichiamo
matteorenzi
cosentino
tribunali
inventore
misero
interessamento
teatrino
avvolge
svegliano
sdds
jenna
rocky
rainbow
od
aday
bulli
vele
schiaccia
consulenti
rivedremo
bisceglie
conclusioni
eccitante
patatina
sconvolgente
biologico
genocidio
dovrete
pusher
gerry
rossonera
gil
favoree
pentola
##dì
pause
wes
incollati
preferire
size
passivo
cul
pesano
riti
##ak
veneziana
andré
harold
divertiamo
cornetti
incontreremo
campobasso
roxy
picasso
carletto
frammenti
libano
mettevo
impronta
difendersi
pulcino
sclerato
stento
mandarlo
prendiamoci
musiche
arts
scacchi
lounge
tariffa
sconfiggere
##ler
bast
cota
mor
ciccione
ellen
psicologica
aggiornate
comprensibile
pattinaggio
riusciranno
colline
clerici
bensì
##ms
muoia
ignorano
butti
anale
natural
preparate
giuli
pedofili
imp
sembravano
uci
hr
yaa
giura
nascondo
unit
imho
imperfetti
mantello
carminati
brasiliani
copyright
clemente
lamentarvi
arrestare
raddoppio
adottato
terrei
tramonti
riprendersi
xd
chiesti
parlarci
revoca
godiamoci
complica
ricordatelo
##isti
tantissima
lapo
efron
##kk
guardarli
kardashian
garantisce
biancaneve
piccante
affermazioni
abbonati
palloni
metallica
ripartiamo
nic
acide
piemontese
cacciatori
bridge
geova
decreti
noiosi
procedere
upon
ritornata
guanti
copiano
caramella
qualita
aggettivo
unicef
aiuteresti
fulvio
gasperini
acustica
tess
ripensare
capirci
manche
interi
tesò
pitti
andrete
hate
funzionante
faenza
seguissi
egrave
attaccate
retail
skate
vladimir
morbido
carrie
klaine
menzogne
rubentus
disfatta
incomprensibile
proibito
comicità
tassisti
##tissima
arrestano
deciderà
piccione
rivoluzionario
unitevi
crollando
simpa
debbo
cambiarla
##ang
carola
bano
tradire
bts
holland
imparano
ansiosa
ref
esperimenti
pelù
anticipazione
spears
avró
peperoni
ringraziamenti
rafforza
coltivare
navigare
##xd
terremoti
colorata
rallenta
heat
ssh
ventina
offrono
##sk
seggio
sparate
animalisti
philip
##video
innovative
generosità
heartbreaker
innovativa
spedito
cellule
pinguini
albo
assurdità
spalti
ciak
venirmi
allagata
informata
fausto
calvino
sonohra
##ua
##nico
doti
poterli
rene
wallpaper
otro
mista
##reste
distratto
musicista
mattutina
scazzata
bellucci
interpretato
scambiare
born
ripeti
ricevono
tab
infinity
poetica
hahaah
brenda
luiz
pensata
riposati
colin
regaliamo
fre
cappelli
ahaah
esibizioni
sfondi
schedina
intuito
straziante
francoforte
crystal
suoneria
rifaccio
lucido
prigioniero
considerati
depresse
incognito
gulp
chiamarla
kata
retwittato
sk
nuu
sperano
quaglia
cop
confidenza
fallisce
manicure
##scuola
maschietti
pannella
divise
sopracciglio
spedizioni
deserta
gasa
portieri
##col
stephan
##ley
benone
organo
mentito
campane
chiamatemi
riservata
magnus
##smile
cucci
pardon
pensarla
donde
introduce
delizioso
huffington
peugeot
nascoste
cadute
canotta
pantalone
pericoli
margine
issimo
robbie
##teci
ignorato
##cs
romagnoli
comic
bigon
consideri
##calcio
kings
gres
bora
illusi
difendo
adda
twittiamo
organizzati
perquisizioni
sempione
suggerisce
calderoli
archeologico
traumatico
views
legalizzazione
figuracce
addormentarsi
smau
ricorsi
scultura
tripla
tirocinio
brillano
nothing
antonelli
pom
indizio
aggi
maturi
convento
susa
hack
storm
garbatella
esclusione
aeroporti
pugliesi
agitazione
eduardo
accendi
sacchetti
annullare
fermarmi
cucinato
stallo
collegata
arance
agrave
six
grammy
bugiardi
cozze
algebra
lombarda
jerry
marx
bnl
chiodo
diocane
abbiati
professor
twitteri
castagna
vandali
##rro
realizzati
unfollowers
##stico
sce
##eu
frida
kadmon
locandina
tonnellate
myriam
wordpress
ammirazione
shannon
affidabile
complicità
nerazzurro
strette
soia
aliena
rimandata
ciauu
##yy
michel
##ide
east
consigliare
giam
seppur
rilassati
formare
##mini
freghi
confermate
verme
ted
trainer
facciata
##otti
innovativo
delicatezza
rileggo
narrativa
eccoti
fornelli
taggare
falchi
bruttissima
mannoia
lube
lisbona
gite
casomai
outing
blogs
diletta
profonde
wta
freno
valeva
firmacopie
lake
radical
##nga
frecciarossa
portoghese
preferenza
platone
magici
dispari
boutique
bidone
stanzaselvaggia
licenziare
raisport
indovinato
##lei
damiano
treccia
segnaliamo
ordinaria
comprese
biglia
abitano
gale
cai
sudare
intima
annunciano
fattori
perlomeno
borghezio
kitkat
fondente
ringrazierò
inizieranno
futbol
rapida
zappare
anticipata
rischiamo
alleato
##oi
spiano
distrazione
credici
jd
ahhahahaha
piselli
sordo
##uri
esilarante
infermiere
abisso
ritratti
svelta
disagiati
kitty
drogati
archi
guinness
candidarsi
margini
afferra
tiamo
gina
picchi
privo
condannare
volanti
itinerari
visual
carota
riunioni
chiarimenti
camryn
##vero
vomitato
cuochi
vox
##gra
##giorno
compi
rimanendo
manzo
destinata
sorti
funzionale
avvicinare
sisma
maestre
nuo
tutele
accompagni
meccanismo
ristorazione
ammissione
vettura
favorevoli
suggerisco
##sson
sembriamo
ui
cooking
pqp
fv
voterà
##esi
osi
indosso
prendimi
##sp
ilenia
regata
##nio
malika
jax
foot
immondizia
wimbledon
première
riconosciuta
bonifico
autogrill
resurrezione
digerire
popolarità
tessuto
dt
intensamente
curry
basato
premiata
dimettere
tagliando
jan
sospende
custa
unfollowa
molo
##gol
create
studiate
nettuno
palcoscenico
gallarate
coppola
briciole
corsera
vestite
bullo
chiederle
rotola
filter
##info
maison
cei
piana
mrs
preme
ilgiornale
##ek
migliorano
puzzano
liquida
interagire
lasagna
esageriamo
appia
biblioteche
ibrahimovic
irritante
ennio
rialzarsi
reunion
vecchietto
vaga
decisi
mete
cartelloni
croci
confondere
iurato
asroma
capricci
regalarmi
nem
before
salmone
really
restate
spacchi
portone
presentate
##buongiorno
congressi
dogana
pot
daspo
immaginando
qll
nin
veroo
parmigiano
sibille
normativa
mclaren
decarli
prigionieri
sospesi
eurobasket
morali
turnover
giallorossa
siva
agita
magre
suon
twi
scambiato
pensassi
wood
pizzica
spendo
##vai
passanti
##renzi
precisi
##way
disturba
grazi
creatore
anonima
tas
nicholas
andreotti
criceto
inteso
validi
mucchio
mesmo
mammamia
ernesto
rifiutare
##rato
montare
rispettano
##ram
andarmi
ottanta
bagaglio
##enti
masini
ddio
##lone
oppa
amarsi
##tus
mancio
##landia
qualifiche
cambierebbe
postepay
anticorruzione
fenomenale
militanti
magistrale
cristallo
buonagiornata
##gan
conservare
stoessel
rot
barbiere
deal
editori
uhuh
##zzano
claire
salvarsi
anci
gradita
walt
ul
##tag
unisco
ese
scalata
narra
rivedendo
uan
soap
fluo
##ndoci
##í
medaglie
architecture
avanguardia
consecutivo
innocenza
romics
impazzito
deprimermi
enrica
pianeti
ambrogio
##fondamentalmente
estoy
tenerti
infortunato
ulivi
limita
regalando
##niente
nonché
piave
indigna
twittah
musa
smalti
anas
criticate
giubbotto
indeterminato
trasgry
produttivo
timidezza
plastico
stilista
fregatene
ant
economista
blasi
fregno
consolare
trasferisco
overdose
bisognava
wkwk
##tel
indicare
honey
nia
since
puliti
spaventare
tornasse
noii
pubblichi
apprezzi
longo
centimetri
fiducioso
pontedera
continueremo
arrabbia
mixtape
schermata
taste
muovono
evasore
followback
traverso
negata
uf
tentando
correte
seven
lalalala
##ità
puntano
siriani
cortei
satta
accanimento
coltellate
gerusalemme
perplesso
singing
convinte
ronnie
dissesto
napoleone
traghetto
importi
##tato
imposte
youtubers
travis
danielle
distingue
pettine
##min
riformare
ecologia
rientri
spalma
sense
nutrire
apparentemente
mes
sottovalutare
conduttrice
coli
mazzini
fottono
amiga
flo
organizzano
muy
scopriremo
modesta
nego
scavi
istanti
##ngan
julia
dittatore
lovely
aspettavi
cant
there
dimora
maschili
stash
##bbero
playa
agenparl
lucrezia
olympiacos
smorfia
alexander
esonero
sciolto
diplomazia
competitività
ztl
volgarità
boyband
spoglia
riparare
annamaria
signoria
bambole
concreti
building
ansie
raccomandati
insegni
yang
diari
events
acireale
arcobaleni
chanyeol
esigenza
chiamerò
latitante
previste
effettuare
competere
puri
realtá
spaventata
macché
attentati
tesoroo
ev
##devo
poterla
##zay
renziana
berlu
##fatto
mf
ilary
mettano
tai
esuberi
goethe
odissea
adalah
comodità
riuscissi
cartina
baracca
rinviata
visualizzare
riposino
sopravvissuto
separano
peggiorare
aumentate
dollaro
troisi
racchiude
riaperto
spain
risk
rb
parlatemi
orsa
atomica
schermi
ritwittate
ren
ammazzano
desta
litro
tripadvisor
cheesecake
stewart
gramsci
manderò
mim
trasferito
connesso
litigo
maina
##world
berita
pipita
basata
professioni
spendi
hemmings
garba
plz
finanziari
nts
pini
mpn
fichi
alzate
avverto
fetus
essenziali
bilderberg
netflix
lascerei
neruda
combattuto
indignazione
penserà
cinematografica
zalone
malaysia
sù
follemente
reggiana
traditore
programmatore
##vato
quanno
##erá
kia
pulci
##letta
omino
considerano
lismo
diffonde
##anti
chiedimi
darlo
womens
##rk
delfino
wm
tn
masochista
mickey
omosessuale
squallida
mazzette
gori
valorizzazione
assaggiato
terribili
bicocca
diffondete
samuele
pacifico
vic
feed
nicolas
impressioni
rubino
sebbene
trattata
mene
prix
##lio
ove
piacendo
felicemente
grasse
portafogli
kant
fax
cooperative
warhol
chiacchere
hadapi
luminosa
musim
pranzato
cancellazione
meditate
proseguono
avvertito
riprendiamoci
emh
##ette
scambia
telefonino
##iana
##est
baba
indipendenti
tnt
fischiato
corregge
gym
gray
murphy
palude
##tare
rottamazione
contadino
trends
allenarsi
discusso
tornino
utd
svuotare
dannato
passava
##agò
eid
lola
perderlo
calmati
edo
ahahahahahha
ragni
##fy
dolcetti
curly
daddy
ezza
svegliaa
autisti
incompetente
pirandello
alassio
toyota
cameriera
indubbiamente
ragionamenti
relative
cartelle
fritta
correzione
rosico
sailor
jus
scrisse
meme
##lisandri
ambra
santis
bionde
crono
ariston
fingo
emotiva
egg
scura
temono
asili
compio
##fuori
eiffel
electrolux
paragonabile
rapallo
indulto
chiedergli
invidiosa
gorizia
board
vitto
mainstream
giuly
##inter
avanzata
steven
##basta
necessarie
nuca
vedessi
creed
danny
##max
affrettatevi
porcell
canzoncina
dnipro
elisir
culpa
rubiamo
allegramente
concreta
offensiva
bracciali
fatima
bernini
rileva
arresta
piasa
installare
pool
paradise
attesi
maiala
##piu
beso
dome
antipatici
interne
traversa
rossoblu
commozione
hermione
pitbull
significherebbe
snowden
competitiva
termoli
pellicola
meridionale
disgrazie
agorà
padana
arrabbiati
consecutiva
psico
matilde
unfollowano
proseguire
signorile
attico
lotus
freak
medi
fasce
crollata
##sai
dawn
tagga
proclami
killers
risalire
cordoglio
gemitaiz
sipario
patrimoniale
spumante
torinese
presadiretta
stat
delinquere
echelon
stirare
importantissima
holmes
tecno
incassa
setta
istituzionali
inler
risveglia
virale
maniaco
chiedervi
magie
fasano
pupi
ji
imo
insegno
##ez
cercarlo
##ada
##music
##out
##rm
tiffany
coworking
pentirai
impedito
ebete
avuti
pineta
contrastare
dislessia
collegamenti
quaresima
sepakbola
zapping
selva
mediolanum
direttivo
allison
colei
solitario
bobo
tremano
mariti
colorate
any
apollo
pensateci
scar
prendevo
sconvolge
achille
alcolici
diventeranno
smentita
##ud
ornella
browser
rodrigo
affrontato
nutre
riguardare
yup
scalo
lov
alpha
avergli
svegliatevi
scaricando
morirei
renderla
conoscermi
##scia
avis
indo
##uta
commentano
import
##idi
trasmetti
tornarci
attrezzature
einaudi
linkiesta
pozzuoli
yellow
supereroi
compilation
bocelli
incontrerai
potercela
filiera
sostituto
costruita
scesi
spendono
notata
interrompe
masih
spal
##pu
fastidiosa
denise
slip
meh
vision
##boy
bf
rubo
truccato
##telli
varsavia
vivisezione
impronte
cito
knox
ligue
rivolgo
caruso
successivo
pezzetto
questore
asdfghj
efficiente
julio
parametri
java
comunicati
golosa
cervia
##dd
mantra
kom
monito
wib
provenient
noir
circostanze
televisore
permanenza
penultimo
pudore
omicida
figurine
derivati
squalo
dodò
veicoli
piangiamo
leggerti
mana
levare
jkt
ibar
brigata
small
crei
caio
ascoltati
fottutissima
rappresentato
maghi
difensiva
insignificante
policlinico
distinzione
allertameteo
vivrò
crucis
oltranza
crampi
fagli
installato
rispettato
zingare
recensire
sisc
gone
riassume
monete
mundo
vincete
nunzia
##ame
caput
##gs
puttanate
mozzafiato
giornalettismo
promemoria
together
difese
impazzita
kelly
sbando
ahhahahah
cornu
fighissimo
conferenze
stringerti
vaii
##tipo
vicolo
adoroo
billy
guardami
tadi
giocavo
chiu
bussola
##armi
robinho
deputata
kennedy
troveranno
tagliatelle
coachella
goduto
navigazione
andamento
cazzarola
prevendite
fisici
aru
destiny
barbs
conoscenti
kitchen
bova
##ld
access
metallo
ladroni
livio
donati
dracula
dosso
vinceva
avvicinando
riaprire
##gr
sca
##app
tifano
tabacco
coinvolgere
agro
canarie
ciglia
aldrovandi
biciclette
sdraiata
sprecata
aspè
banchieri
entrerà
specifica
vestono
working
spazza
magcon
belga
masters
squalificato
evans
pitt
rivali
##age
aspettavano
##azione
corridoi
desktop
recinzione
carra
ridevo
complessa
manetta
amish
fulmini
spuntino
presunti
nominata
pecca
tgla
beau
ficar
incontrata
ses
emoticon
madoo
boicotta
pezza
ibm
autentica
epidemia
contropiede
coff
assessori
autorizzazione
piccinini
bryan
scassare
mandorle
stringendolo
gary
centesimo
felix
striker
cinta
verra
purezza
mattone
raccontiamo
agnese
kart
segnati
stocazzo
##ten
dirty
volumi
douglas
ritornerà
ambizione
entusiasmante
corsetta
necessito
fantasie
combina
denuncio
permettermi
composizione
juls
vide
agency
rugge
renderci
freni
colpiti
bocci
##lp
hg
razz
etti
aiutino
africano
##ex
coinquilina
spoleto
gratteri
aereoporto
lynch
inchiostro
dividono
stabilito
carinissimo
vertenza
sposarmi
bottone
valgo
schi
faletti
mirror
betta
ocean
fic
scattato
coreano
miller
##là
him
legittimo
pomezia
insonne
cercarti
antonino
##ppo
ritirati
perder
berna
disgrazia
scoppiando
itinerario
forget
delfini
sensitivi
frazione
ally
bru
fateli
frigorifero
kermesse
legislatura
caceres
modestamente
giustificazione
prim
sabina
gourmet
tornei
balza
allestimento
travolta
collegio
freedom
bali
stancante
esperte
prestato
cacciari
##remmo
##rone
riapert
pics
##rmela
serpente
tirarmi
nola
cagne
godono
giorna
quero
bach
msn
vergognosi
completi
hesse
masturba
gaeta
levato
buia
autonoma
abbracciami
automobilisti
opposta
penoso
consultazioni
campeggio
acustico
ibi
palazzina
organizzatori
damn
marcella
smartwatch
istruttori
##rna
tuscia
qi
##expo
songs
inseguire
mobilita
##lm
permessi
ritardata
sorteggi
prestare
taarabt
atteggiamenti
cinecittà
inserimento
generoso
##lata
gazza
convincermi
##spazio
malvagi
gogo
pioveva
salvarmi
natalia
alison
naviga
meg
combatti
cip
##ks
impazzisco
credibili
muscolare
stramaccioni
contador
bocciatura
mosche
venissero
apice
spalletti
rimando
##res
risponderà
holly
rg
hits
retto
rideva
abbinare
euri
##rata
arabia
spegni
bagnai
avversaria
aaron
spose
magazzini
testimonianze
precarietà
autovelox
tortellini
infernale
carenza
blake
fissando
tbm
muovermi
coordinatore
hood
economisti
tributi
fumata
health
##rda
eccerto
##rry
ahahahaah
buttiamo
mha
mmhh
votati
psycho
pilot
strike
molli
foligno
restyling
sopralluogo
religioso
modernità
ammonito
lussemburgo
coperture
somiglianza
yolo
monitoraggio
##sm
fotografato
conoscerla
reggae
beard
venier
sistah
most
caca
valsi
supercar
lettino
salutata
won
piacevoli
prefer
acidi
strizza
anc
televoto
ghana
diffamazione
##mba
olivetti
maleducato
nascondersi
trota
willy
telefonici
barbona
jacob
finals
tere
ricordarvi
prendano
invano
favorite
scan
stabilita
smog
brit
bancone
hogan
##ung
gobba
tree
aule
##veste
dimartedì
aggettivi
diarrea
idoneiconcorso
consolle
crocifisso
ricontatto
comunicazioni
impazziti
protagoniste
risparmiato
scaricata
durissima
commettere
volato
nottee
offendono
twitteriani
immobiliari
miranda
avvicinano
nocera
ping
fiko
fossette
stimoli
puzzi
demand
spaccata
caschi
yoo
pacifica
nos
protetto
gliele
cippa
bentornata
apparizione
fis
giocattolo
domingo
delegato
seduzione
vedè
aqua
sopportato
ely
intel
recco
orti
igor
odiamo
##detto
nemo
statista
dimostro
gh
liberarsi
##gl
adv
piovendo
wake
trust
beli
ras
pagi
ramo
gazzettino
fuorisalone
indiscrezioni
reagisce
cadorna
fecondazione
subisce
raffaello
riflettori
emergenti
pennetta
questionario
##roni
sopravvissuti
chiavetta
intervenuto
##lì
rilasciati
vanità
posisi
enrique
mj
smaltire
consumato
vila
martire
ovvia
vivodi
eternit
##tele
capitemi
##letto
adios
skin
ladies
commercial
alpini
hand
reflex
makes
privatizzazione
suggerire
certificata
ingannare
technology
toast
costata
vaccini
guy
illuso
pvc
faber
vanda
squali
calano
diede
tetta
##hifo
aspettarsi
add
cig
autorizza
canestro
records
eyeliner
kamikaze
sondrio
slovacchia
zitella
culetto
colpiscono
ripensando
copertine
##tis
suca
tshirt
##mani
raccontando
dimetta
duecento
sbagliavo
lyrics
##rri
mafiosa
##ara
oohh
zoom
efficacia
collaborazioni
##mas
##ds
lina
truccati
virgole
cicchitto
opposizioni
hayley
bignardi
texas
paranoia
plebiscito
inchieste
bobby
affidato
chiasso
candele
circondato
pochezza
pubblicitaria
nuocere
ahhaah
deus
##mamma
pec
inciso
sviluppi
cazzaro
guitar
impeccabile
tsunami
acquisizione
cuscini
profezia
conflitti
editrice
macchinette
capricorno
possedere
alleanze
airlines
rowling
schiacciata
nga
annunzio
fidarti
incollata
cinderel
abbasso
beccata
robi
capiterà
fortunate
nevicata
mile
isolato
##wi
marci
photos
trade
madame
lidia
carboni
bocciati
pregando
dosi
unina
trek
muovo
termometro
quotidianità
hulk
santana
oww
serviranno
tc
fregarmene
associati
punito
insostenibile
valide
prevale
sognavo
sapessero
fato
##ea
rovinati
creme
asini
ascoltarti
sporche
partenze
ritrovano
##gnano
berry
buena
faccino
element
strazio
sudafrica
fartelo
##rè
pigro
esecutivo
klaudia
limpido
nedved
apparso
ricovero
luminoso
pulsante
twt
fidanzamento
gip
pellegrinaggio
dialogare
rettore
paita
barbieri
gialle
vah
rossetti
pois
mine
script
marce
laureata
ceglie
mastro
##dotto
amr
dissero
veg
regalati
doppie
vibo
vomita
caricabatterie
dissidenti
padoin
guidolin
palline
inserita
respinto
stufi
affido
koala
metrò
espugna
question
gun
ritwittano
##vin
allegato
ricatti
mazzate
santissimo
segnano
levo
ratti
vatti
scu
##dj
##cino
icc
arrivava
adamo
incalza
##gdr
fim
statue
esauriti
church
telethon
abbattuto
tornerei
camogli
congiuntivo
pani
pandev
opposti
videomessaggio
insegnamenti
biasi
risolverà
soddisfare
##juve
perdite
crepes
poetico
dobrev
makasih
verrete
altissima
##ag
mariella
dichiarare
stufata
casertana
rispose
sbloccato
cellino
fabbriche
tomo
lis
singolare
arriccia
memorie
graazie
lot
dipingere
ventre
offendo
canadese
lingerie
agghiacciante
guerriglia
continueranno
nathan
kfc
fika
apericena
furore
lavarsi
generosa
biondina
universal
varietà
bros
apprezzano
litigando
feltri
consolo
notiziario
broken
##rdo
ripensa
##tar
orizzonti
dissenso
ananas
merd
eccezionali
maga
successiva
parleranno
antara
equità
decentemente
##ye
accoltellato
sfortunato
dirsi
materno
ahahahahhaha
crimi
toglierei
baric
scogli
ves
syria
##simo
chile
lakers
fondotinta
sagittario
igiene
subsonica
dannazione
autocritica
spiderman
rifinitura
nb
continente
darla
dotato
pizzarotti
hoc
approvo
appesa
vv
invaso
tagliarmi
lume
considerate
ahahahhahaha
gonfi
##gar
sica
silente
direct
riservati
yah
pereira
efficaci
jib
lanciata
benino
##val
##ntini
katherine
aggredisce
impresentabili
gibran
marilyn
obesa
comparto
ritardato
educata
senzatetto
costruzioni
cogli
pubblicizzare
rovescio
wrong
allontanare
approvare
potendo
taranta
dec
sceglieresti
fermarti
amarli
terroni
ceneri
aspettami
##lah
tirar
miki
coerenti
primaverile
disonesti
avorio
mascotte
quadrimestre
romulo
apprezzamento
arrestate
determinata
##har
universers
coccolare
lini
indossato
trovarne
corno
hunter
cuoca
child
candido
misti
lasciarla
superati
diga
fatale
giov
scoglio
##cessimo
compete
ricordalo
##ieri
aperitivi
gioiosa
idraulico
fornitura
casinò
centinaio
stangata
definita
escursione
ravioli
litigata
tacci
incide
tortona
rave
pelu
vinile
trail
smettiamo
testaccio
buonissimi
tosto
sottolinea
pdr
politicanti
notano
seb
##lita
insisti
dote
##media
assunta
fazzoletto
shakira
acidità
lascialo
semafori
amerai
linguaccia
wmyb
aggiustare
eddie
sfortunata
arbitra
##bas
pubblicizza
tese
bal
ut
pensavamo
rcs
##rsela
##rmeli
rispettate
funzionava
permettendo
oti
##quindi
obbiettivi
buonumore
memorabile
compromessi
strategica
trave
fotocopie
##zie
rivederli
ingrassata
passeggiare
brambilla
adoravo
buttando
lebron
contesta
stellinare
eletta
rimanerci
romero
peroni
going
annunciata
estasi
mobil
uccidi
seguirvi
bto
bracci
##ski
soddisfa
erik
abituarmi
montalbano
fucsia
ojala
esselunga
crociere
obi
nickname
sfuggito
pagheremo
interrotto
passeggiate
loca
sugar
ragazzii
operatoria
costoso
ascoltarli
spiegarlo
occupi
maledette
credenti
café
postino
girati
atl
bakal
drop
amm
grigi
rallentato
costare
strama
hs
scorte
procedure
perturbazione
psicopatica
posteriore
cuffia
impossible
lumaca
bigliettini
poveretto
alter
lunghissima
donazioni
vetere
fangirlare
porterei
wrestling
santanche
grandiosa
olivia
affondare
felicitá
##nei
telefonia
cicciona
percorrere
strappare
##gue
##uk
poracci
quinn
picture
elettore
kon
raul
ammazzati
mignolo
roland
ferire
lasciali
thx
dovizioso
nucleo
bradipo
cantautore
lealtà
speculazione
dexter
demenza
distributore
fimi
cartaceo
canapa
pamela
rottamare
ottimisti
three
alexis
verdetto
rid
lavanda
##lan
osare
inculata
barbarie
clientela
ggente
##dino
fatt
##tanto
##dda
suonando
appassionata
svengo
chiedilo
cookie
insegue
ladispoli
pokémon
appartenenza
snowboard
santanché
tedesche
riviste
sprangate
souls
rosiconi
magiche
esagera
barboni
comportarsi
crolli
palace
millennio
autorizzato
jeep
bloom
frà
##ard
arrossire
pozzi
smo
grupo
misera
iter
balzo
trattengo
bancari
adventure
pussy
balsamo
supplementari
distrarmi
preservativi
israeliani
qualificazioni
epcc
financial
pensarti
quotidianamente
##lon
accendino
naomi
imma
camila
ssi
vincesse
unghia
burocrati
investi
tava
aggrappa
gri
augurano
deroga
fukushima
himym
inclusa
kylie
cartoline
eterologa
sponda
cristoddio
uscì
ognuna
dedizione
riceverai
pubblicitá
piangeva
scintille
nonnina
##ct
tbh
accompagnata
illuminata
evadere
##adesso
victor
##shug
globe
mmva
##op
visualizzato
vas
pictures
pile
occhioni
spoilerato
major
fluminense
paestum
flappy
sciocchezze
pallida
vigevano
traumatizzata
piceno
budino
accordissimo
dolcissime
##male
esigo
allenato
abruzzese
lamentarti
alberico
patch
costava
contrada
cada
battiti
##zone
assiste
##mondo
bitches
##rc
##volley
perdoni
scialla
strumentalizza
pessoa
genti
##dm
discordia
tecnologico
comitati
promozionale
analista
jihadisti
governanti
##mb
camerino
grimaldi
esonerato
diventerai
facendomi
##vn
eviti
populista
fiorenza
granita
stefy
??
noiose
isaac
march
chip
uniscono
stressa
##fc
compagnie
buu
sanzione
vegani
erick
##cini
sorveglianza
ovation
ventimiglia
alunno
collettività
razionale
parabola
bolgia
pessimismo
fondato
italioti
contagiato
papera
genetica
contattaci
saronno
lolz
##van
avanzato
azzuri
inserisco
cinismo
diciassette
gv
risi
sbloccare
jesi
riccioli
friendzone
##tempo
##iani
julieta
oceani
ciuffi
agnata
minici
badge
pija
ricompensa
xv
techno
amarcord
rossoblù
nullità
bistecca
something
sosfam
rifatta
anatomia
##cal
lourdes
stringendola
parrucchieri
pimpa
riscoprire
##nare
pale
cozza
solitaria
bottino
vissero
circoli
twitstar
sunny
camminano
hq
priori
oz
gradino
moni
tips
inventate
fdr
censurato
mossi
##ker
sis
iachini
scettica
franciacorta
scomodo
sobrietà
maleducazione
guarderei
mlml
ly
pandora
facilità
giraffa
invecchiare
restando
insistere
arancio
cande
mvp
milik
martens
cornuto
scarto
credit
stic
poggio
pedala
wonderful
incassi
tau
##arti
bas
greg
mikey
##guarda
avvenimenti
bonjour
plauso
soundtrack
avvenuta
bufale
abolito
assessorato
napoletane
robben
##gne
materasso
tequila
brunch
presentazioni
mattutino
capirmi
santissima
lettrice
finzione
ius
somme
barbari
beneficio
irap
##ndoli
oreo
##otto
haram
##casa
istinti
morfeo
trasmessa
zodiacale
arsizio
kingdom
agropoli
coppiette
doppiaggio
caf
tenacia
hiv
aerea
simpaticissimo
bardo
direttiva
napo
socialista
andai
pericolose
insultando
topa
inquietanti
inventati
bush
tristan
##lare
narry
lesbo
fidanza
ciocca
gfe
rivedi
##dentro
karate
familia
uscisse
calcioscommesse
congrats
everywhere
retromarcia
maometto
racconterò
narrazione
contraccambio
applause
svoltabuona
cominciò
descritto
photoset
blindata
sotter
finiva
sfotte
parioli
##press
sobrio
panel
cana
sezioni
succhiare
##let
dual
evade
##issimo
intitola
telegram
starti
bae
##storia
chiederei
##dra
auricolari
nagatomo
bagnetto
taider
comprerei
riprendendo
dritti
paolini
palazzetto
sisto
moltissime
monotonia
erri
ringraziarmi
dimenticarmi
pepa
globo
chiederanno
contato
superi
naples
tesorino
perses
drag
##ula
mex
matty
rsu
rimanete
criterio
presti
comica
toda
immensi
aspirapolvere
infastidisce
darsena
sconcertante
sforza
behrami
youporn
##core
udite
promettono
avanzi
moduli
fritti
##tw
profuma
dedichiamo
sparite
espone
rivale
realizzando
puzzo
spreca
strutturali
tossico
striscio
incipit
frustrazione
riabilitazione
uisp
gardaland
prudenza
indifferenti
piombino
bimbeminchia
registi
generico
trapianto
escludere
riceverà
compiuta
inferiori
fio
assicurare
direttori
spie
lampi
finitela
brooks
perdenti
checca
soldo
ubi
tank
matite
nik
sorrideva
scaricate
cro
dormiamo
personam
tantino
livestream
significati
amichetti
twerk
detrazioni
elettriche
medjugorje
statunitense
lulic
marley
emotivamente
grilli
fottute
clandestino
muos
slalom
unfollowata
zeus
##sky
tradita
wanted
oppo
ritirata
bacon
illegalità
garanti
precaria
##ey
umh
preoccupate
##fest
mesetto
reed
aspettarmi
baciata
valentine
deprime
scendendo
perda
gad
mazzi
tapi
erdogan
appreso
beckham
trinità
scommesso
ventenne
giugliano
riprovo
combinazione
riuniti
morbida
cipolle
partorito
elimino
ufficialità
transito
tetap
shinee
savino
##nica
dalmonte
erotica
##italy
desiderano
agliardi
##pan
vincoli
poor
comportano
minor
riescano
piscia
coman
shorts
bomb
massacrato
##uh
##gen
connor
scream
selezionato
discreto
guarisce
grignani
reputo
sfuggita
jules
wireditalia
frequento
eccezioni
sostanze
semifinal
pongo
disperso
text
bidet
precisare
bugiarda
allagato
riconoscono
guardandosi
applaude
bl
superga
swing
georgia
salvaguardia
rec
incantato
choco
alert
selca
dogs
##tini
iddio
uro
journal
gramellini
laresadeiconti
rabiot
supercazzola
canottiera
dropbox
fortitudo
montenegro
kekko
impasto
inversamente
mubarak
repressione
risorto
truppe
riletto
murales
pescatori
personalizzato
nissan
forchetta
contanti
noleggio
poterci
baciarti
oasis
frankie
##letti
pata
sentì
moderato
##tan
finger
bagagli
ret
torrent
cristi
boum
roy
gomito
chrysler
everybody
apostrofo
corallo
carisma
femminilità
cioccolatino
giudico
present
polverini
sfogare
informarsi
fingono
globes
lilli
stimolo
scommettere
reni
crepando
basic
pacca
prive
sandali
##tic
angst
sfigate
fatiche
collegare
ton
mischia
casella
mollano
rachele
sfottere
idro
flower
paro
prepari
prometti
autentico
baldissoni
coelho
cognomi
etihad
##ure
mandorlini
rotelle
rivogliamo
belinelli
solidarieta
riprendiamo
sinodo
brlive
giustissimo
tfb
risolvono
organizzo
lilla
criteri
violentata
alleluia
allungare
customer
##han
anpi
##style
chiamando
andro
quarant
controllate
rim
##spol
##rum
emergere
balia
cumple
sodo
seh
incompetenza
squallido
compatibile
labirinto
poveretti
stuprata
cydia
agevolazioni
passatempo
stringi
pedalare
precariato
staminali
semplificazione
puramente
confiscati
jogo
##gate
gius
buonisti
nation
ritorniamo
rischiando
coreani
##back
decise
manie
grant
##delgiorno
patta
qnt
marisa
##ui
sane
esaurita
inesistenti
orsetto
condividono
grotte
preferiresti
bunker
##mela
liquido
pound
##meno
neuer
contenere
blink
wu
cold
##nci
possibilita
credevi
tinge
sauna
maree
proverbi
fasci
##ggine
vales
puntuali
fari
moralista
vendiamo
digitalchampita
periferie
sceneggiatura
fuorché
garko
javier
macbook
rinascente
pretesto
comodamente
collaterali
##ogni
telecronista
lip
extreme
volantino
toby
islanda
macchie
terminare
##tone
tool
perderà
aspettativa
dediche
##enza
sìì
boko
fesso
spre
usarla
tradizionali
citando
filone
esistenti
fabbri
nak
donate
queremos
ingenuo
calduccio
klopp
miglioramenti
ragionevole
contemporaneo
osservatore
sansone
rapide
sequestri
esagerate
tenetevi
vicinissimo
##cy
vendesi
voc
pupo
colombe
luv
minkia
introdurre
scriverci
regolari
rezza
filmati
roseto
watanka
ups
saba
giornalai
##rme
fallen
benji
fresh
elogia
faticosa
##festival
anthony
autolesionismo
avvolte
oscurità
sintomo
flickr
aggredita
shonda
sviluppatori
decidiamo
gir
belvedere
pessime
tvtb
##sea
postata
tura
finirlo
sfondare
cancellate
rutti
roar
sclerano
crime
##xi
nascondi
elvis
britti
cime
lettone
ode
gna
duca
rubi
jun
toccata
tecnologica
novanta
cambiarmi
ws
laggente
punire
sbanca
##uccio
ribella
biglietteria
chitarrista
mastrapasqua
trofei
voragine
fallimentare
artigiano
volkswagen
ardua
rinascimento
ricorderà
lamentele
cocacola
esponente
madrelingua
maiuscolo
agcom
mimosa
anggia
kiwi
fiabe
ostina
vergini
incasinata
determinate
lidl
festadella
cati
cesano
insultata
ik
abbraccione
##yan
faire
danneggia
##nati
##rica
guard
stessero
##oy
radar
girate
preannuncia
polare
##ou
sebastiano
every
gentee
scomoda
iso
##ash
imprevedibile
occidentali
raccolte
vegetariana
apriranno
gotham
preoccupatevi
safari
linus
some
billie
adorano
lock
ricominciamo
##cho
orme
bocciano
##bet
cassetti
gabri
cinquant
prender
##mercato
sba
illegittimo
percentuali
struccata
tarantino
criticità
conservazione
##gge
emergenze
fontane
riparazione
innervosire
criminal
tenerci
consueto
yacht
uel
course
##ulo
##don
aquilani
quà
cellula
sobria
perbene
chiedevano
triple
comprando
leigh
icone
turba
finiremo
diffida
artico
moka
##fai
px
correggo
lawan
braccetto
oggettivamente
eseguito
sussiste
petrarca
borja
barcaccia
agisce
applicato
lavata
accettarlo
gar
sequenza
##horan
vivrei
barese
ficou
///
domestico
##ndogli
hehehe
organico
tica
ddr
##tino
porteranno
accettata
##rare
concentra
sistina
riportano
colton
sfido
abbandonate
##zu
steam
vabb
okaay
##cche
sospetta
rie
##bbi
toccate
seth
biabiany
galileo
allagamenti
discriminazioni
buddha
impostazioni
guardaroba
ripristinare
ascelle
ultimissime
urgentemente
saprebbe
farmene
ioleggoperch
gila
niang
xxi
pubblicitari
lavati
stalkero
marcel
volgari
vago
acca
sputtana
licia
##gn
##rse
brother
vermi
horse
stesa
differenz
veicolo
consecutivi
correttezza
cruciani
fondelli
ammettiamolo
lavorative
maldive
relativamente
jerman
tatuata
coincide
apache
raiola
innanzi
lamentatevi
poll
ventennio
conoscervi
yeep
investita
##ama
##rn
giuliana
poveraccio
myself
mucho
appoggiato
bibi
poggiando
solidali
brioches
sporting
affascina
preoccupando
build
muffa
##viarmi
##ndatemi
avi
beethoven
caltanissetta
lichtsteiner
pertandingan
sebagai
minestra
tribù
saudita
domandina
aq
attivista
tatu
frontale
inevitabilmente
abbondante
finanze
schiacciare
levatevi
baciarlo
veritá
belluno
islamica
salvami
quer
divertite
level
vegana
infarti
bernardo
grammi
gattina
sfidare
posted
urto
##king
ahahahhah
bor
cad
vinovo
arno
usciremo
imbattibile
supplenza
paypal
trattiene
detenuto
uccisione
bruttezza
durex
mismo
sclerosi
mont
tutor
hahahahahha
maxxi
##ist
cantavano
scattate
##tissimo
thing
glam
magri
##bytes
saliva
mà
gain
pome
difatti
##ux
valla
nap
notami
rammarico
pedullà
princess
pilastri
webinar
candidature
soppressione
shoutout
ribadire
scrubs
carige
darwin
parlavi
mignotta
lignano
odg
vegano
clifford
loki
scegliamo
programmare
tut
faii
##if
invidiare
serbo
##store
dolcee
severo
comfort
kamu
##ys
ostaggi
lanci
##hahahahahahahha
estranei
intense
scioglimento
##fattoquotidiano
eccellenti
mutua
riavere
excited
marmi
riporto
consentito
stabili
iam
##stro
nevicato
rione
affaccia
marissa
##gherò
odiata
logiche
##ska
mangiavo
##sin
sensitive
igual
barile
sfoga
##cup
formati
lager
recipe
##colo
hunziker
scopelliti
emergency
pecorina
scolastiche
sensualità
maionese
babysitter
peluso
paparazzi
lievito
spammare
ignorarmi
caffeina
conquiste
notate
studierò
dimentichiamoci
analizzare
pude
pada
biz
freestyle
rsi
odori
##ppi
tam
##ane
frequentato
potra
##mano
esistiamo
telenovela
banditi
memo
##scrivervi
aristotele
coetanei
florencia
ferragni
piovono
bagarre
albenga
##rici
dicaprio
ostruzionismo
polizza
devastata
limito
manfredi
apprezzata
gelido
scarti
accesi
yemen
bd
##cola
trap
##lato
lauree
stonata
siapa
postano
risolva
apra
##cina
clochard
genovesi
wojtyla
eccetera
guzzanti
handmade
indennità
costituisce
strategico
banderas
evo
ottieni
navale
bse
dogo
elettrici
barack
kane
##ot
commissari
baresi
adoriamo
netti
liberata
##ddi
immigrato
pose
metterle
mosquito
##ab
include
rama
sry
stringimi
minacciano
ahia
autunnale
dinamiche
forlanini
magnum
##tech
innamorate
scambiano
calcolare
scoprendo
tormento
nuoo
eden
diete
novi
left
esprimi
interessate
##data
ost
porche
muovendo
finezza
cammini
flat
camminato
sopravvivo
elefanti
vacci
fetish
vendute
sfogarti
plurale
kobane
individuale
slam
dottrina
incontrarla
indagata
merlino
dancing
mola
tempismo
sj
arrabbio
ank
##sch
##osi
##monte
specialisti
##sera
premere
nevicare
rasa
depan
cedo
sonda
vegetariani
invecchia
angie
tendo
ica
riot
sbaciucchia
bre
innamorano
voltare
rottama
blablabla
fac
pensino
espulsi
epilogo
caparezza
maserati
abbondanza
bagnasco
refuso
orfini
nervosismo
attaccamento
salterà
dorso
metter
##rtela
bbm
sìsì
ade
provocare
sclerata
fg
perderla
serenamente
ridato
fattibile
chiodi
alloggio
foodie
presentarsi
twd
formia
##hahahahahhahaha
lori
vinse
dilaga
seguirli
rac
hahahahahahahah
ghi
brain
archivi
##viene
incendia
battendo
sognatori
recuperi
scaglia
cere
alluvioni
dovute
imparerai
euforia
notebook
##svoice
innumerevoli
drake
evitando
asciugare
portici
versare
imputati
emme
corano
tollero
richiedi
trovarli
giocarci
bullis
amigo
schiacciato
cretine
convivere
bol
photoshoot
noah
cho
find
sallo
clio
##food
flowers
nole
aggira
arduino
conveniente
randstad
shanghai
vuitton
infradito
lunedí
produttiva
televisivi
bongiorno
genialità
tridente
zelanda
silvestro
esteso
jasmine
squallore
##ttina
capirti
circus
domestica
mamy
silvana
paolino
intitolato
amari
attivita
votanti
pubblicitario
##fino
sarde
ohi
steso
##ré
dior
pagani
try
ahahhaah
russell
roc
puntati
##aw
montero
ihihih
around
shut
antidoto
frizzante
svanisce
tvttb
concessione
jerez
essien
quesito
naz
##netti
osceno
christina
##pia
lasceranno
cobain
colorare
catturato
crescerà
gaming
##bsp
shippano
ricercatore
scriverle
mentono
eder
spagnole
ritener
mlmlml
solida
ripulire
ono
consulto
aziendali
jihad
tarde
indi
citi
ffi
iger
suonata
dirotto
pierre
aforisma
carboidrati
dipinti
rifondazione
selamat
sottovalutato
barroso
pallina
sardinia
convincente
bgiorno
rebus
regalatemi
salvando
concedo
sapresti
oppone
hawaii
usufruire
##mes
apo
abbinata
sorridenti
##mmi
##nò
custodi
assassin
lella
certificati
resp
##red
salata
percepire
copi
barche
consiglierei
xiaomi
sconfitti
cognato
giachetti
competenti
teletrasporto
verdone
generalmente
##ting
decida
rosicate
##loro
watching
elevato
cagarmi
gonfio
indossano
cupcakes
##quo
insicura
faith
consoli
sus
##ú
egoisti
facciamola
manifest
##specializzazione
##ahh
chiamarsi
pulman
spaventano
indumento
scafisti
trasgressiva
zafferano
jortini
preservativo
privatizzazioni
trasferirmi
cacciatrice
eclipse
##ted
pentole
##ky
oriali
grafici
gettare
penny
route
copri
doo
scontate
studiata
lucania
lusi
argh
##demmo
##tivo
tessa
farmacie
tbt
riconferma
spedire
scacco
psichiatra
raggiunti
ricorderemo
pedonale
appennino
policy
pelliccia
porcellina
buoncompleanno
incasso
medel
rilassarmi
modestina
riparo
sedile
svenuta
partecipe
milazzo
scarlett
devastato
##ppa
vabeh
empire
gestita
divora
puccini
sirigu
miraggio
difronte
shell
mostrando
orali
flusso
hu
doma
##cos
paragona
rota
viveva
pain
belin
coltelli
milani
persecuzione
presumo
possiedi
spogliarello
dritte
obesità
jolly
artpop
nicoletta
auspicio
##anni
casillo
cespuglio
clausola
wendy
lunghissimo
sophie
aiutarla
supportare
vece
prob
fingi
heroes
albiol
accese
luccica
direttrice
razzola
pedonali
ivano
amauri
atlantico
casina
##ppe
shake
##ful
ruben
zola
satu
virtual
oristano
steel
parlargli
bt
gheddafi
irregolare
antitrust
devastazione
clasico
angelus
gmail
cuando
contattarmi
##girl
ignoro
trasferita
timori
capoluogo
magni
ricche
##bro
incrociate
semplifica
##ucci
pasa
stoffa
##rock
eve
##nder
rappresenti
salma
att
sou
accettate
##blu
mic
mascherano
meli
jump
sessanta
potterhead
scintilla
arricchisce
inspiegabile
stereotipi
imparerò
adinolfi
venivo
maledettamente
ferreri
polsi
rivendica
confessioni
adorata
ospiterà
lucano
uvi
sbornia
modestia
nan
madein
diment
sang
votarmi
meow
cercherem
fategli
farmela
cnn
nolan
incendi
nonono
swiss
##fs
vixx
hahahahhaha
afa
firefox
flauto
aperture
cesenatico
lucidità
panificio
secessione
tormentone
assegnazione
kerry
mixer
nichi
vietare
dianna
madrina
fischiano
storace
chu
trasgre
combo
incoerenza
lasciatelo
manna
distratta
##porta
stellinato
piova
blair
migliorando
sequestra
tommo
sceme
##rg
curati
magnate
maddai
stasi
malaffare
peschiera
minuscolo
wilson
constatare
riscoperta
divertirti
avvistato
compere
macedonia
siberia
calendari
incontrarci
ricambierà
##shop
usavo
noce
limitare
decade
##asi
rinforzi
diamond
scuotendo
tempia
changes
spo
lets
cigno
pooh
gelosi
artica
pascal
tweep
##cat
fn
##glielo
##celo
segnalate
trippa
demone
listen
compari
risolvi
intrometto
marra
##dan
liquirizia
odierno
sopravvalutato
vigliacchi
abbraccerei
cassonetti
elettorato
elettricità
##av
popular
atterraggio
bé
gentilissimi
renasce
sforzesco
rincorsa
bim
meditare
kita
servirebbero
operare
##ppings
pareggiato
milionario
pareggiare
program
comporti
noè
pq
volevate
amplia
##rido
privi
campagnaro
autumn
stampata
subiti
polpo
tonino
org
insopportabili
##eg
zar
##cer
agito
they
dip
contraddizioni
megashouts
abbronzatura
jogging
antoine
bovisa
kcaargentina
galletti
calzino
furbetti
spacciatore
lievemente
eccitato
guè
raiuno
usd
toccatemi
spenti
condicio
ricominci
inclusi
inte
provavo
zan
kontra
roses
michelin
pasqual
psicologi
immi
julie
##mbo
rese
scampia
##tella
stancano
serviti
applaudire
palalottomatica
preziose
twitlonger
barnard
cattiverie
treviglio
splendente
musicland
suicidarsi
fala
consumare
indagare
##celli
cosmetics
strunz
galles
fermamente
osato
incondizionata
incazzano
scassato
vincerò
ricambiano
lap
madonne
##ell
kid
dk
##lie
##zero
lore
##rre
hold
##cchè
##dos
##forse
grill
offendi
##lmente
boyfriend
emporio
approfondimenti
tenebre
rompipalle
orfani
inclusive
twist
appaiono
assistenti
spaventato
impegnarsi
ascesa
adatti
complicate
veterinario
cassie
sparatemi
mandorla
aiutarvi
insicurezza
rube
mention
rendite
##fback
salvarti
vinceranno
gridano
lasciarli
disperate
metteremo
jin
tardo
obblighi
interpreti
chie
censis
inviando
organizzate
malate
nonne
coglie
anon
andavamo
iggy
vcs
anzio
domenicali
contate
nocciole
stoccolma
maddaloni
dinanzi
arizona
estensione
inedita
pittella
canonizzazione
antenna
concentrarmi
shaila
finalissima
neonata
looks
accise
abba
difenderò
incominciato
segre
amorino
voteranno
giudiziaria
tks
branding
pennello
darai
evolution
ascoltarmi
sovrana
##lt
parlasse
##uccia
iscrivere
scoppiato
misurare
letteraria
tsk
decoro
kali
poichè
instabilità
scarichi
trovava
alec
cliccato
vamoos
playoffs
ava
belfodil
frainteso
manfredonia
spericolata
campbell
espera
decaduto
concretezza
hilton
optional
traduzioni
gemello
lituania
visua
progettare
scienziato
pianista
significativo
sputtanare
fina
sent
attrici
faremmo
sparati
lesione
accompagnati
potenziali
conchita
marzia
trecento
motion
##libro
ricordarci
##od
liti
##essere
##ven
sarri
reus
verga
illude
##ele
giuliani
pens
vecchioni
##tz
sof
bardi
urgenti
burdisso
rooney
velletri
eccessiva
moralità
campanello
##amente
furioso
gesso
pir
##roli
bozze
sostituisce
smetterà
sacred
andró
##mina
carmela
##gp
meda
portarci
rights
erro
##volontariamente
vivian
beats
vt
foo
ringo
riscalda
tatto
vers
soffoco
indecisi
sacerdote
accontenterei
auschwitz
consiliare
gatsby
sfottò
svizzeri
risonanza
centravanti
whisky
monumentale
variabile
elfo
esteticamente
spongebob
rover
##ite
commentatori
notturne
paladino
ringraziarlo
##viaggi
risentire
albertini
##film
pelato
curling
capirebbe
dignita
##med
bussare
comandare
filosof
aste
gotta
napolii
##odio
vedano
duramente
visibili
laut
vega
riassumere
risa
##tiche
qsto
trive
rivera
usava
celebri
illumini
intervenga
##ppy
friedrich
rimpasto
zaccardo
insurgent
schulz
governance
favij
verginità
bonanni
broncio
houston
incantata
andavi
finì
traumi
cac
fendi
pescaia
tiger
servillo
prevedere
##ion
sprizza
##des
rossana
riciclaggio
integra
##ay
campani
informiamo
milly
sum
osservando
curo
illudo
pareggi
##rtene
risse
student
scusiamo
lollo
bimbominkia
aurelia
advertising
palloncini
vissuti
pubertà
macarena
apparato
spettro
postumi
##nus
mosaico
terrorizzata
vargas
soffocare
oj
spostarsi
tenore
sviluppato
sme
montata
poema
lerner
stabilire
assoluti
riferiva
seguenti
arre
contente
benson
shel
##anna
rileggendo
duel
nuovissimo
deduco
alpino
piper
prendevano
heidi
##bre
kosta
incantesimo
indispensabili
maggiordomo
relitto
zurigo
sadness
discografia
birdman
affascinanti
mojito
saverio
ombelico
chiacchierare
feroce
were
prassi
affermato
timidi
indegno
##piano
##ssu
funzionamento
firmati
diff
hh
reputa
vocina
viviana
maroon
cancellano
guarito
##stri
vinte
tinte
pacchia
##città
ov
pazzie
nasci
sevilla
diminuire
tonto
##tano
sballo
cora
inaspettata
pinto
makers
hazza
riprendi
vedevano
lemon
maestà
wireless
addestramento
avoja
fresche
larghi
leggings
pagliacciata
fatture
iononvoto
antonini
spugna
negarlo
germany
apparente
guerriera
vivrà
illuminare
gw
micia
mensili
rubando
##aro
imbang
less
maybe
pretendi
ud
maze
regine
mhmh
davo
##tata
ripaga
trattate
merit
ansiaa
##allora
proiezioni
sommersa
officine
momentaneamente
pompieri
ribellione
clinton
vagamente
diciamocelo
cameretta
guarisci
approdo
pulcini
scotti
vietata
fossati
bastos
artificiale
murgia
velocita
weather
pancakes
moore
comportato
abbandoni
agr
finanziarie
toccante
bone
##fm
rovinate
sy
lagna
jacket
##rico
guardian
petali
vaticana
gambero
retwitto
entravo
magi
sboccia
fotocopia
confermi
augias
istruttore
sneijder
ulteriormente
agricoltori
batosta
disordini
pietoso
perplessa
ultron
nocerino
surface
##segui
cagnolina
intrigante
thinking
cuginetta
##cit
ester
consegne
masseria
definiscono
interrogatorio
tremonti
aggiungendo
profitto
avvicinandosi
gettato
serpenti
lontanamente
ospitato
plis
piacerti
joker
popo
prestigio
basilico
invasioni
prenderne
parer
frame
adore
tento
##voi
##ela
##rese
sognate
rinizia
macchè
portarla
##acasa
cred
indelebile
catalogna
prescritti
passeggiando
liquidazione
gigantesco
gioielleria
sperimentare
sprofondare
because
baekhyun
guccini
rag
dub
seba
tiriamo
wellness
salutarti
collabora
stellini
colmare
pj
aggiunti
##gas
cero
propongono
nigga
contati
barry
fará
rincorrere
rendita
trendy
flag
graziella
impegnate
##xa
irwin
permettete
appoggiando
meridiana
liber
nutri
stringendo
autopsia
fiduciosi
schalke
squallide
capocannoniere
trascorsa
compensi
partigiano
avezzano
attraente
pregiudicati
jensen
realizzarlo
vantarsi
dive
cologno
pigneto
bebè
socrate
jung
minime
maura
found
neanch
trentina
altroché
assale
coven
bande
ist
partorire
evaso
secondaria
##stato
tieniti
font
squad
limitati
leonard
biagi
marek
ainda
oglio
stark
vasta
##bia
scolari
otti
french
nobili
inserisci
ambienti
estraneo
sedicenne
adesioni
seattle
monroe
airport
piombo
accademico
arroganti
riferendo
tributes
lavorativo
##team
coccoloso
funzionalità
tattico
amatori
bipolare
infranto
grattacielo
neonati
difficilissimo
rivive
intimità
carlitos
suerte
buttarsi
abilitazione
sunshine
chimera
uo
accomuna
scontrini
##rl
sudan
brillanti
retina
tamarro
luana
desio
karl
aloe
pescare
##city
capitani
##doro
pau
sbam
seguira
##hahahahhahahahah
confondo
caps
championship
fiki
nw
impulso
varoufakis
panchine
virtualmente
illudermi
olimpo
affogare
schifata
lunatica
scoprirai
vicky
griffin
rouge
scappi
##boschi
nautica
sincere
segrete
magnà
serali
paghino
svegliate
##nis
colleghe
pds
provarlo
##uis
quantomeno
pope
fuggi
digos
azkaban
intelligence
intolleranza
micromega
formigli
bambolina
passionale
scheletri
paroleincircolo
riascoltare
impegnarmi
rovereto
laterale
arrenderti
lisi
barbera
beretta
halo
dimenticarsi
macaronai
sbattono
##ies
appa
capiscano
bastoni
raccontarti
sospendere
stimola
##tò
vincerla
dot
##donna
smw
ingrasso
##passa
letale
bruciati
amber
violet
render
onora
appelli
##ahahahahahahaha
vario
heey
affeziono
asparagi
auriemma
ippodromo
terrificante
burattini
scrissi
proponi
finnick
diventeremo
riuscirebbe
restituito
debolezze
sperimentale
paraculo
cerebrale
antagonisti
chiostro
assegnati
guardatevi
cuccia
semicit
voghera
sensata
##can
frantumi
discreta
##forum
addice
conservatorio
giudicate
taggate
cats
indignati
elastico
frane
todos
vacche
eliminate
caselli
##cato
risvegli
##felice
mcr
rinunce
comix
pensar
sanitari
giochini
##ldo
lavorate
ateneo
tpl
sputtanando
shippate
sbrigati
bia
pun
##seguimi
services
##vale
benjamin
irruzione
supereroe
istigazione
homeland
acoustic
catechismo
malessere
zerbino
##genoo
sciolta
wesley
hahahaah
without
durso
##ec
ricercato
automatica
diramazion
##ppas
calato
arsenale
rifiutano
cannone
rr
perderai
udito
contagio
##ring
puma
adatte
eccita
cesse
riscrivere
##sione
escano
rv
##nas
##lar
arietà
orbita
##ben
superficiali
ribrezzo
religiosi
iannone
gazzè
massaggiatrice
ricciardo
ricorrenza
cicerone
maleducati
emigrare
chiarimento
rimettiti
pedalata
anastasia
cenetta
qr
olga
fora
cervo
leggermi
risultare
inattiva
mis
credevano
ridacchiando
monto
##ena
minta
raih
panta
scrolla
volpi
pancake
unipol
transfer
##ov
pedali
independent
catfish
discoteche
raccomandazioni
protette
impeachment
betty
##ditalia
utero
sociologia
domus
finocchiaro
karen
paso
jongin
drum
distrae
##talino
paia
vm
distinti
trasferire
cornuti
avro
controllano
rich
finestrell
decennio
##tes
##lc
driver
##sabato
pinacoteca
sbalzi
percepisce
eventualmente
marciapiedi
presupposti
divinità
##uli
sfortunatamente
html
canterà
calvin
gemellaggio
urbanistica
deludono
piumino
##nger
jova
aboliamo
own
promossi
alike
consigliarmi
rassegnazione
chart
addormentare
vile
cattelan
beccati
annullata
klub
lindt
comincerò
fla
##cuore
eehh
##nell
smonta
attraversando
spiriti
impicca
lottando
##tivi
nutro
scappati
barzellette
idiozie
inarrestabile
letrerosedi
voldemort
cape
telecronisti
drogba
outdoor
empatia
prodotta
albanesi
colonnello
moralmente
fabriano
cafone
pantera
producono
mordendosi
##lis
rifà
combini
cimorelli
scordo
ballet
vincita
tacchino
magnani
ahahhahahah
cadenti
monella
ucciderà
susy
finally
##rsa
babbi
governano
slash
##far
roberts
interior
lasciarci
traduce
forzato
distinguo
ingoia
colesterolo
cuckold
lacrimuccia
pedagogia
traviata
procedimento
puglisi
bevanda
itatube
fidelio
battiamo
duty
svalutazione
spingono
çwç
##rello
unirsi
clandestina
frangia
guess
paladini
##digitalizzazione
enigma
spoilerare
rika
coaching
minorile
##ball
hum
amichetta
fx
tesa
bastavano
wear
infantili
rewatch
##nie
boris
sho
salite
esporre
##sano
abbassato
spammo
alimenta
avemo
##mbe
quotidiane
sestri
garofalo
imperdibili
netanyahu
talismano
bevuta
altalena
cassandra
thunder
accenno
annullamento
pastiera
sigle
tristissima
sviluppatore
risiede
parcheggiare
pistacchio
giudiziario
annoiato
moccia
auro
gent
soml
salotti
tiga
integrato
##nesi
sentirvi
buzz
sbarcano
evil
##llini
tormenta
##pr
sfidano
pede
##top
protegga
automobile
developer
quitto
distorsione
raggiunta
sevenfold
perplessità
piaciute
sindacalista
spettatore
affezionato
sblocco
venaria
fuggono
ruolata
battutine
vanoni
republic
smiler
study
scampo
abitui
appoggiare
approfittato
trame
oci
esercita
##ev
##qua
##ik
##lee
emm
ascoltatori
tristemente
lazzaro
swan
jose
states
dh
nc
##dalla
liberali
inganna
pezze
asdfghjk
scocca
chiamparino
padiglioni
tabellone
coinquilini
patetiche
consob
stupidaggini
penserei
cougar
accompagno
nacque
controcorrente
diecimila
ahahaa
ammalata
science
incoerente
katie
orecchino
obbligati
pupazzi
odiarti
dategli
oms
spente
padrino
gus
bernard
vegeta
sognata
incazzi
viadotto
alito
negano
##scientificamente
mameli
bek
vara
precise
grog
vannoni
dacia
selenators
jem
nl
comizi
##dem
ecuador
iniziali
evidenti
fornito
brooklyn
instangram
minestrone
sostanzialmente
superfluo
indirizzi
dilemmi
cabaret
western
flashback
tonalità
alighieri
truccarmi
stronzetta
rosanero
stelena
mayer
antonietta
rosicando
moriamo
##lf
appesi
sposarti
gag
sputato
combattiamo
ringraziando
gonews
vb
legalita
ignorando
assegna
rit
entusiasti
sparata
rex
cicca
tortora
determinati
crac
alien
retwitti
##già
tratte
ricavat
maniaci
emy
viviani
rimarre
molle
deludi
scatenati
saltando
##able
stalin
destini
fbi
tatua
##styles
cambino
diteci
apprentice
mostruoso
olocausto
tartarughe
favolosi
pizzerie
scandalizza
ricorderai
showroom
antifascista
obeso
muretto
router
fiorentini
bruci
ripara
incominciare
normal
pedo
masa
tico
spezzare
liguri
gustoso
tendono
rinaldi
stiate
spuntare
marghe
gabrielli
##nate
coppi
mateo
cesar
mol
vedesse
urlava
##nera
##wood
comode
caricando
cacio
heyy
##ban
##vu
sparisco
##faccio
cwwc
zidane
underground
trasferisce
asciugamano
trascorsi
espulsioni
analizza
maranello
sirenetta
##sb
fatturazione
##rno
conducente
scegliendo
alexandra
sinisa
visualizza
invidioso
interrompere
incollato
fruit
gladiatore
voyager
incita
##ham
scaccia
drogo
maronn
ispiri
peccatori
sviluppa
fusi
saw
aho
cacciata
targat
mart
automobili
##loni
suda
dispiaciuta
riepilogo
vissute
vortice
medusa
vernice
segnaletica
mastercard
piazzetta
cruda
rilassarsi
ingoiare
##fine
scandalosa
rivolte
somerhalder
negazione
adulta
sulmona
tassare
visconti
giostre
palato
cosimo
##vere
pvt
vogli
german
fidel
var
occupate
svegliarti
sventola
ang
mov
capiscimi
promettere
socialmente
loren
ritiri
sudata
ahahhahahaha
tgr
ufficializza
babbana
tappi
gridando
ebraico
elizabeth
monferrato
puttaniere
affinchè
taemin
maltese
avanzano
adeguato
besos
commercialista
trivelle
parallele
ivrea
jesy
##hahahahahahhaha
acquisito
arriverai
rilassata
##cker
illudere
giudicati
conoscerci
public
guns
milo
onori
morsa
##dini
sottoscrivo
fungo
funk
metropoli
##sud
contagia
##vr
adecco
##tici
mucche
evidenzia
sorprendere
##gy
costerebbe
ripetono
emirates
ferguson
differita
podemos
sposerò
rassicurante
figaggine
aeronautica
ingiustamente
proclama
volantini
avviare
nobody
linguistica
zilli
dipendere
nya
##ava
##meli
position
olo
sistemo
##rf
graphic
trombare
chantal
disgusto
intendono
annunciati
rds
wings
##nca
inclina
stm
tm
serietv
##party
godiamo
fortissimi
brufolo
agroalimentare
anastacia
treccine
vedró
frustrante
ricevimento
supermarket
piaggio
potti
delicatamente
monarchia
domestici
gigli
abituare
grillina
##bul
stringo
lydia
economicamente
##pass
fantastic
fottutissimi
##spe
documentari
correva
atterra
parassita
##cetak
morra
trasformata
##ix
decidendo
livia
udah
miles
pelosi
parta
seguiva
paz
imbocca
affini
button
centrato
riempio
dedichi
tso
ringraziate
lasciala
cous
consigliera
irregolari
honduras
internship
maleducata
mantenimento
viminale
wyatt
tweak
grazioso
varrà
tentazioni
errata
monie
##mus
paredes
debby
tenuti
adorare
remoto
smentire
pedoni
##rauhl
##oc
attrezzi
sottili
##sini
accorcia
voltaire
##street
##quotidiano
esposta
etá
conca
semana
neil
stendere
entrarci
lambert
kili
ciocco
inca
risorgere
cecco
puffi
bellissimaa
tornado
piton
evolve
stana
agitato
photograph
pergola
##bba
moss
oscuri
apoteosi
irraggiungibile
alternanza
sfratto
singolarmente
diccelo
hardcore
parteciperanno
ostinazione
serratura
complessità
pomigliano
sopportazione
dawson
recuperati
fighissima
riguardi
quirico
##sis
severa
##talia
##cose
mx
sapio
##ioli
videogame
faq
educati
denna
liz
controllore
mangiar
##ira
##sima
trattore
price
cog
???
confartigianato
diciottesimo
formentera
interruzione
philadelphia
transizione
jonghyun
incazzatura
polisportiva
cambogia
fregarsene
accontentarsi
##lol
cucchiaino
liberty
esclusive
filato
temuto
battenti
ferdinando
circola
dakar
leonardi
veronese
svolgere
ferme
##ori
##mine
suggerito
aspettata
cadrà
jas
site
nativi
sperma
noona
rn
##pt
momo
pretese
paint
animals
fregata
balliamo
sprecate
collusi
##nero
importava
sciocco
demonio
sorrisone
denunciano
zitte
provati
inpdap
jovetic
pomeridiana
sacerdoti
convegni
giampaolo
repertorio
succhiotto
allevamento
generalizzare
abbassando
perdonatemi
scavare
arbitraggio
onorare
safety
mense
confessato
##tama
imperiale
colpaccio
cosiddetta
responsabilita
baciati
laggiù
africana
mantenendo
selfies
iniziava
emozionati
offriamo
accusano
print
onedirection
lapide
dominato
só
cercatore
ì
suonava
##ent
compliance
democristiani
lavastoviglie
presuntuoso
infiltrazioni
conegliano
distrutte
trequartista
incontrerà
stravolto
magenta
movimentata
uscivo
sdegno
formica
birretta
sop
mediaworld
gaber
##py
asnicar
##dice
caldaia
pesche
espellere
depositi
molinari
played
affronto
papaya
ordino
transex
pai
chimico
clicchi
reca
realizzate
sembravo
##tua
prod
meritati
gallerie
perch
infiamma
tienimi
rossano
##tty
soffoca
cinghiale
vor
##night
april
later
mixers
ucciderei
loud
incontrate
##cene
anal
##spa
rimessa
ricorrere
condividendo
rebel
tuscolana
impensabile
midollo
israeliano
supremo
apprendimento
arredamento
akob
bimbaminchia
britos
attuazione
bagheria
cactus
ludovico
maturandi
immaginabili
franzoni
otranto
arrivera
esplorare
inventarsi
##ferò
rivoluzioni
avercela
scatenare
indirettamente
tower
oscena
ciliegia
epocale
rientrati
arretrati
votarli
##ren
alzarti
##vy
sketch
spopola
scriverei
stupid
aperi
bagnoli
##gui
mhm
tempeste
assegni
millenni
dos
mitra
bil
belva
##verde
albi
garantisco
emozionanti
anguria
smarrito
emanuelson
aspetterei
maltrattamenti
polacco
enoteca
incremento
distributori
stylist
ripeterlo
zingara
smettiamola
invecchiando
metropolitane
caporale
broccoli
ceppa
persie
scaldare
storiella
sorpassa
leggerà
monaca
shadow
##sarà
miky
##tter
##ties
##iu
dimostrate
rosita
emissioni
cagava
facciamoli
##rselo
quem
hugs
lionel
designazion
assassina
confermati
viaggiato
gerardo
esto
tredicesima
ucraino
avvincente
amministrativo
lampade
gzagato
infostrada
dat
rinvia
boeri
trattenendo
asteroide
rinnovata
aiutarlo
ricaricare
fredde
ictus
anm
avviato
viaggiando
titola
##mobile
protetti
mancino
pb
aumentando
davero
ng
avvelenato
army
##ros
scommette
informi
volge
sri
iga
scrutini
adams
shii
deja
taglie
skysport
asamoah
multinazionale
gerrard
ormone
riunisce
duncan
bahrain
homemade
scadente
imbarazzato
lá
scazzato
gocciole
destinatario
assetto
sparlare
scimmietta
occupo
##diamo
diplomati
chiuderà
ermanno
##ww
##cla
##tive
hk
prenderemo
seguirai
rosaria
title
centomila
tine
blob
bruni
prf
mba
pistole
ribadisc
ripresi
barbecue
sperduto
magnifiche
frecciatine
billboard
entrerò
##rto
giardiniere
batterista
scenografia
tamburi
sterminio
aumentati
coreografie
sconosciute
ostello
previdenza
talks
telefonare
buddy
esodo
##volo
prono
##mis
oie
ceno
risorge
##gua
ques
##ido
impegnando
bancaria
howard
ficca
monopolio
##porteremo
##ade
aceto
roi
benni
posterò
indomani
##rì
ragaa
##esse
stocks
homer
sacri
mazzata
cambiarti
gabbiano
##iche
wd
##zy
casalinghe
guinea
discutibile
venghino
josé
apparse
tagliavento
stupirmi
ispettore
agricolo
sorgente
navigatore
competitivi
ombrellone
danese
##ney
odiarmi
odeio
aprirsi
malefica
curiosita
##strada
gridato
postazione
modificata
elfi
biologica
##tine
##kin
tare
unfollowando
esistente
dovessimo
battuti
##vox
radu
stonato
thai
cotte
shark
scudi
gios
escursioni
ripassa
arch
asiago
##iv
astio
snobba
rida
shu
mordo
ciampi
##vhottest
telespettatori
terapeutico
angioletto
sciacalli
socievole
baviera
diktat
corazon
tachipirina
montanelli
vanvera
fornisce
multimediale
intervistare
abbuffata
insediamento
tricolori
regalata
saprete
videogioco
skifo
professional
veline
valutando
regular
ubuntu
romperti
circondati
north
costruiamo
comandano
accede
##stru
trattiamo
casuali
pixel
risultano
passante
##dite
##iti
getto
##hahahahhahahaha
ringrazi
jesse
##luke
##eta
active
ingenua
amatriciana
coccodrillo
gorgonzola
tumbrl
upgrade
invadono
redbull
lavinia
caratteristica
abbey
petit
abbreviato
appartenere
educativo
asdf
funky
umiliato
buonsenso
jaguar
premetto
fotografici
leale
decidete
incazzate
##ici
parker
baldini
seguiremo
##oned
sparks
tantomeno
##fica
added
niki
moody
bruciate
clare
##sana
tenco
looking
omaggia
barattoli
root
ovo
flex
gustosa
##camp
abbaia
minds
meritavano
pk
adel
ascoltala
pensasse
civil
spalanca
staremmo
concedere
iscrive
oddeo
stravolgiment
lim
kok
arbore
chagall
kostner
southampton
torosidis
polmone
infrazione
completissima
gilda
valutazioni
passarmi
fermerà
covo
rilasso
cessioni
scorretto
bravissime
belotti
dettagliato
eheheheh
sucate
disdetta
svelati
legends
succhi
teddy
intreccia
calor
kaya
terna
##libri
##face
selenator
pollaio
rientrano
ran
sabri
##secondo
odd
stivale
ance
##cri
istiga
ay
##gie
dimettono
spillo
accorga
sorpresi
bocce
enna
ateo
imperfezione
scozzese
geometra
medesima
sagoma
fringe
zanicchi
coinvolta
menopausa
anarchia
contadini
clippers
astronauta
nuoro
arbitrale
limonare
ruggiero
pescatore
##mma
##pop
madness
incontrarsi
straccia
melfi
voilà
emotivo
accompagnano
tatoo
lottiamo
menangi
verbali
ozi
##sol
isolamento
accusati
scava
##band
piglio
significare
idv
hart
potergli
significano
vabene
comicon
bolt
missili
##rw
infelici
bling
wei
##sal
##down
dolcina
alloggi
invadere
buonarroti
raoul
brindiamo
nardella
freschezza
runway
organismo
borromeo
distribuito
mus
scappiamo
costruttivo
finley
travestito
problematiche
##lang
posticipi
razzo
avercelo
table
saponara
riguardanti
riusciresti
##ess
spieghiamo
scotta
abbracciarmi
presepi
also
lizza
pasquali
director
manico
sorda
##notizie
ecce
prosa
acer
juv
dichiaro
tagliola
dormirei
compila
gz
ob
commette
spiga
estende
manuzi
registrate
capoccia
bilbao
invincibile
irrilevante
poetessa
qaeda
circoscrizione
cristianesimo
perduti
pilastro
sturaro
armero
attributi
jajajajaja
formativo
opportunita
leonetta
##fosec
nasino
anagrafe
listino
segrate
meritavamo
canoni
attrae
arri
inversione
permetterà
sore
dannati
pesta
concertone
nascondino
bcc
score
dick
concentrata
insonni
##nchemia
consolato
rigira
shout
belum
clone
portarsi
terrorizza
uaa
manine
##milan
gaz
avvalgo
carrefour
ratzinger
pilates
ignoto
penosa
rumeni
petardi
cruciale
matrimoniale
ingressi
parcheggia
evitarlo
pretura
dicevamo
viaggiatore
colf
wonderland
andrá
genesi
muito
cercarmi
monde
fidanzano
antony
stylinson
clero
svelo
##nsibilizzazione
dedicarmi
soave
passavo
marinella
nipotino
picc
bronzi
##dare
cotone
baudo
##ffo
toca
invento
##len
##meglio
tmi
corretti
cofanetto
hernandez
vongole
melbourne
penelope
rogoredo
hutcherson
chemical
codacons
rumeno
favorisce
crociata
richiesti
coinvolgente
moriranno
traguardi
##lebih
nazionalità
manolas
##retto
bijoux
sudah
informativa
affamati
laico
circondano
barolo
ugl
opa
incerta
disprezza
muda
rinnovi
resistenz
##ett
mettervi
marchese
materassi
brice
indossando
##vera
##ume
zon
confusi
tato
rat
##eb
##mmerda
liquidi
bookmaker
pse
strip
seiun
##gato
cotoletta
sharapova
generazionale
rifornimento
discografica
ferretti
spiegatemelo
spaventoso
optato
investono
entità
charme
livigno
adri
brezza
anticipare
patologia
tenetemi
colta
datore
##rta
spostata
corriamo
alves
nesta
##terra
leopold
domini
sinistri
mwc
shame
pigri
porro
##sina
##ene
tania
##sie
graf
cronica
metá
forzata
lex
monet
cic
confuse
##vino
cheese
##npageit
colgo
liu
cumberbatch
fernandez
maglioncino
impazzisce
casillas
trasferimenti
risalto
ricapitolando
##xo
nerazzurra
bua
gregory
disfare
sopportarmi
navetta
unlimited
##rati
heaven
compatibili
mans
portò
instagramers
harus
tenerli
comincerà
glory
kung
connect
nesso
lavorava
visitarla
vauro
##nards
picchiano
dekat
edu
curarsi
arpa
##cosi
##run
cag
menzionate
sape
gonfie
##sette
adp
sputi
frullato
maró
flor
julian
vitamina
aviv
##amici
zozza
ragion
antonia
coperti
draw
planner
insisto
stellare
pressa
inimitabile
maleficent
rotterdam
sottolineo
sovrappeso
ucraini
dibattiti
mascella
ripetutamente
combattimento
tavoletta
muratore
montale
olimpica
##pizza
vfno
castoro
perseguitati
vincolo
jenny
amerà
denari
batto
##spero
##nelle
oscilla
pepsi
##lista
##sn
superando
##cr
goals
filmini
rist
cantavo
tinto
##mato
bellissimoo
giustificato
##lità
feelings
castani
##cita
msc
frau
olly
##card
precede
campari
clean
stiro
erotici
moscia
##tiva
negra
tolga
warriors
akan
abercrombie
castellammare
ninfomane
paradossale
sconforto
singhiozzo
aliquota
orrendi
spudoratamente
disarmante
condivisibile
restituzione
polizze
sterile
yummy
infortunati
incastrato
affidata
invoca
mercury
cupido
sfondato
masi
general
contromano
##bol
lanza
rivolti
affanno
cab
scambiamo
crediamoci
ucciderti
controllata
bellii
toghe
complete
disk
fave
##chiama
sfascia
bean
ced
curi
bands
orta
rocce
turistici
accarezzandogli
plot
dudu
macchiato
fatico
##ntina
viaggiano
##cara
conquistano
ayrton
chissá
oxford
gallagher
mariposa
bidello
wallace
matematico
equilibrata
pinilla
colosso
ammettetelo
affamata
raffreddata
brosio
individuare
pharrell
invalidi
abusiva
durissimo
esprimersi
ritrovarmi
incontrarvi
##nee
dixit
asfalta
lasciandolo
pardo
romagnola
premiare
celo
creiamo
panic
selezionare
##lite
desideriamo
adieu
arr
parolaccia
##tweet
##az
bacco
autonomi
utilizzati
operaia
libra
gnocche
carli
##hs
patato
festeggiando
stoppa
##gre
##rita
##tudine
liberiamo
guaro
divenire
sebut
##list
gano
parlino
stellato
cisco
ecm
lorella
distruggo
frequenze
montecatini
sephora
vajont
valpolicella
foursquare
passeggero
proteine
determinante
dislessica
caciara
cassiera
punizioni
eccheccazzo
avvertita
allenarmi
astuccio
continuerai
buccino
zeppelin
discutono
flebo
stalkerare
risiamo
rilasciata
finanziato
santon
tenerla
toglierlo
assemblee
cazzari
pronunciato
meridionali
ignorata
##fin
rosicano
rincorre
bawa
##din
beccano
fanclub
starsene
vestitino
acuta
guardala
jp
suscita
mettendosi
inciucio
mick
studios
bocche
##tg
##ttato
rebi
ggi
bw
leggilo
spiritoso
poraccio
esistenziali
donano
feature
##play
mino
dispera
ciambelle
meritevoli
calcaterra
conservo
gabanelli
ambizioni
epatite
flashmob
specifiche
bowie
autogestione
camionista
scadenze
elevata
accorsi
idrogeologico
burton
finalista
ralph
passeremo
accenti
parlà
kay
calibro
celle
sbuca
svariati
piantala
molesta
mangiarla
gustavo
ridge
lnp
apertamente
benetton
salvarci
notav
corsica
holidays
##scio
tifato
been
brocchi
eres
pod
##pen
##lto
euronews
affamato
mmerda
different
##rada
conservatori
precoce
intrattenimento
rimorso
appieno
convinzioni
hackett
introdotto
mancherete
realizzerò
equilibri
against
spostamento
diavoli
bestemmiatrice
kobe
tematiche
oke
combattono
difficolta
tlist
conduttori
gradirei
divani
##ep
aki
ustica
bottoni
##isa
sbagliamo
##rossa
marano
tlc
##js
rivelano
proprietaria
valero
neal
yle
interstellar
malavita
lines
cucciolino
##nini
svelare
condivi
deck
beri
trattava
scalare
orio
iena
roth
ska
##denza
esonda
magone
ecosistema
discutiamo
chr
superenalotto
cerignola
fvcg
spensieratezza
decorazioni
esercitazione
calcistico
onorevoli
rilevante
succedesse
clandestinità
peters
successione
##cher
sparse
idrica
funzionerà
gradimento
desideravo
psichiatria
talebani
gasata
scorcio
curata
##zzata
scientifici
##free
pota
picnic
##gri
ffa
##bis
samu
spinaci
##las
yeahh
##ima
##report
fingendo
pavone
comunita
significativa
ugu
ispirano
parl
eropa
graffi
mk
sime
brien
contribuisce
fratellanza
apnea
marcianise
circostanza
combattuta
pascoli
parametro
keaton
showcase
everton
apostoli
reduce
messicano
fondamento
storti
guetta
sinfonia
giannino
humor
stupita
inceneritore
vegetariano
estremisti
scilipoti
owen
venirci
australiano
urca
nations
incomincio
campion
veterinaria
aime
gates
mignotte
caricatore
ceste
soldini
##rca
##aha
prendetevi
alcuno
belo
moschee
bing
ink
valige
abbini
gradevole
crowd
schio
civita
fel
effettua
sid
piacesse
tricks
cristoforo
pneumatici
ricevute
temporaneo
cicatrice
comproprietà
scientifiche
microonde
masochismo
provocazioni
tute
tenerissima
cern
galà
umilia
machete
bless
oliviero
##eco
##maria
azzeccata
ministeri
comprarli
segnata
draft
possessori
inciuci
orsoni
zucchina
intendeva
vivremo
appiano
pour
berlusconismo
giriamo
morir
profitti
caste
##vado
perizia
legare
piscine
phon
##dina
interrogano
ayane
goloso
portiera
volando
nucleari
therapy
puniti
ky
trucca
##clash
gonne
celebrato
stenti
grama
salaria
##goni
##nale
arie
ammetti
roulette
accertamenti
sheldon
tennant
mummia
sorrisetto
ciotola
letterina
risolti
preistoria
beviamo
kahlo
clementino
morirai
glik
##game
specificare
upload
nicchia
torretta
reparti
romeoy
##ric
bayer
lissi
troy
concessa
writer
goku
avon
fisiche
allontanato
tagliarsi
vedevi
controllori
fanatici
##issima
##zziamo
frusta
sciocca
prenderle
sparando
##cati
licei
##rga
deliri
capitelo
conquistata
##vic
woww
sharm
##fil
siedo
sau
##sua
colors
ehehehe
##abak
tronco
richie
parr
mum
pompe
reception
gentiluomo
itinerante
cannoli
annessione
aggiunte
incasinato
manlio
ribellarsi
pendolare
provvisorio
assumono
atta
guidonia
condizionare
allievo
neurone
comportarmi
##nord
grandissime
##kka
rispettata
announcement
boiate
fru
armadi
rossini
gnente
fanne
contestare
jk
incrociato
mastella
uffizi
saliti
artigianali
maniere
usai
assaggia
uhmm
milka
cascate
classics
mattoni
portarli
interessava
##stella
camerun
iloveyou
##nsi
sarkozy
stromae
avversità
giochetti
pirateria
pastorale
ercole
tesoretto
bielorussia
sfrenato
intasato
taco
volutamente
spezzo
said
##cle
rieccomi
colletto
deprimere
##ida
odiarlo
ruffini
##kh
pocket
spiegando
esatti
dimostrarlo
jenner
agile
boing
##om
gior
scusarsi
volergli
comandi
pestato
prenderai
passino
##gata
realizzano
docce
calare
colombiano
##hanno
##ttu
ballata
bic
lion
annidi
lolita
soprannomi
moraliste
cesareo
fol
gianlu
avvelena
ugf
##zzati
italien
##nf
landscape
comma
preliminare
aggressiva
impaziente
divieti
coscienze
ingenuità
sudditi
relatore
chiamò
airbus
formata
piddino
trasparenti
orsetti
fisioterapia
trasferirsi
esilio
pierino
facilissimo
alemania
foundation
giordania
delegati
gregge
marlboro
saturno
spoglio
infilare
log
ibs
dolcezze
basterebbero
aiutati
informatevi
comunico
parallela
##domenica
squalificati
close
##riemi
##das
guidano
temporary
scompiglia
fanny
announo
sentirà
tardissimo
hahhahaha
xvii
goes
expert
eliminando
lions
sedermi
colpite
pente
hahahhahaha
apprendere
condono
cares
denunciate
dado
piera
entusiasma
carni
dormiva
##nse
preven
bir
cosciente
consulenze
detroit
anestesia
potenzialmente
infinità
riduttivo
relatori
punisce
guinzaglio
osservazioni
bertinotti
esagero
occasionali
connettermi
##vrá
isee
ripartono
evening
fermento
##gram
marocchini
flotta
sbagliarmi
frio
toglierti
eboli
brogli
artistiche
bollate
niro
vg
liberate
govern
reggi
renna
##musica
draco
monia
tester
incoraggia
dorian
olaf
salumi
apic
lang
sprecati
carpe
##ndole
sussidi
ics
##uro
cesari
riparto
grup
roche
britannico
ignobile
carrozzina
defunti
residence
scandicci
genzano
antidroga
berretti
vomero
apparenze
pertanto
gravity
arretrato
anteprime
desi
disperare
esterne
prc
shay
gopro
collane
schierato
nanti
lolly
##zer
morirete
bastonate
manderà
rondo
berlusconiani
affrontano
##mann
##gare
tizie
rivoluzionaria
mancia
inv
trenini
nine
maran
masse
forrest
frequente
rane
##ffa
sfa
##yu
maniglie
rolls
sposami
spite
lho
##nic
hugh
lockscreen
sputtanato
esibi
ideato
ricambiate
scusarti
eterni
##cela
stritola
marinai
ness
stanche
desolazione
lucchese
trincea
bollicine
antiterrorismo
sceneggiata
ripieno
cammello
damasco
cb
romolo
disagiato
valzer
recensito
accettazione
tamarri
booh
rapinatore
bassissimo
folletto
fioretto
scocciata
comprendi
crederò
svelata
##bri
bravaa
gno
##tuti
funzionario
wat
##ras
sons
cz
cett
bandito
##rb
niza
mistica
nuti
lodato
coa
##dere
##uz
andreas
fissano
augurato
convinci
svende
menare
amnesty
chiambretti
psicopatico
raffinata
otterrai
retrocessione
mughini
bevande
michielin
livejournal
thatcher
casualità
volleyball
esitare
panama
arresa
birdy
tonfo
fatina
castellana
fatele
coltiva
risponderai
osho
##occhi
credente
cum
rivoluzionari
scoprirà
caviglie
voglie
##wo
tweeter
tuffa
fitta
dol
##bil
custom
avvo
acquisiti
rovesciata
dday
soni
demora
##oltre
sofferma
hy
impalla
steni
suicidato
##studio
##sche
piazzato
taro
vk
cinico
deficente
limoncello
bastianich
civitanova
illecito
reincarnazione
coinvolgimento
immorale
intestazioni
selection
candeline
sponde
hungry
liquidità
inoltrato
ciliegina
pedrosa
associato
gufare
rivolgersi
philippe
ringraziarli
communication
alfieri
esprimono
spostando
penali
saghe
esultano
semp
pigna
icons
sally
yaay
solido
discutendo
attivata
##chia
aspira
cuo
baratto
ricordava
secchiona
protesi
##cà
##verremo
editor
rappresentata
##cl
##rosso
bisogn
##ffi
##qu
aramaico
sprovvista
piovosa
cronista
heavy
riformista
svolgimento
amministrazioni
avverrà
paralisi
mercante
pigliaru
erezione
twain
schifani
giornaliera
telefoniche
coesione
proveremo
figliolo
interazione
aura
tamara
bestiale
accorgiamo
trasformano
digestione
##lazio
bevete
mercenari
photographer
##aria
puntando
rifugi
##vio
capacita
chieri
ariel
capriccio
cambiar
cavia
mimose
deliziosi
invenzioni
ripieni
stupefacenti
teorema
fanciulla
guevara
patrocinio
sacrosanto
inconveniente
ampliamento
miserabile
frittelle
quesiti
inchinatevi
rewind
pasticcini
nightmare
jacques
intestino
bidella
resuscitare
stupefacente
temevo
perotti
riprenderà
volessero
ciclabili
unggul
tourism
incivili
spiare
incar
buoi
accarezzare
vagone
##cano
##met
ritardati
premess
##veda
amorosa
##her
prog
afro
minu
berlusconiano
concetta
##ew
comme
orientali
rodi
##buonanotte
blasio
crudeli
sindacali
kira
slim
foga
##palle
simil
escita
enea
becchiamo
ogg
boat
divisioni
babba
condiziona
fitch
vanz
ritrovai
arcivescovo
beyonce
disinibita
djordjevic
imparziale
insufficienza
pebalap
sunderland
liturgia
metamorfosi
verbania
vicesindaco
stampelle
cristante
plaid
bowling
organizzazioni
mancherò
emergente
briscola
rozzano
##arry
partecipiamo
pannelli
elettronici
ceerto
mera
iglesias
leggila
manteniamo
parquet
seat
pulce
pico
mater
##bal
sopportano
perù
ahaahah
dipenda
sil
cg
label
nordest
pluri
cojone
isi
rullo
testare
moll
odiosi
stravolgere
fregava
##auguri
colma
registrando
desk
insetto
##fl
presentatore
formano
mma
acchiappa
##ffe
lives
login
natali
dialetti
ridevano
randagi
aero
opel
inciampa
bulls
soal
discariche
meccanismi
profumeria
fascicolo
education
cribbio
riscontri
catanese
ribery
outlook
analisti
prototipo
quick
mattiello
friedman
illuminante
oneplus
scontare
sacrificare
coprono
commissariato
micheal
eternamente
sammy
indegni
stag
frenata
##initaly
affidare
bussi
marassi
convincono
reb
tha
equazione
nails
nge
natal
scriverà
diaco
sgominat
violato
##drew
##rp
pattuglia
##nano
mettevano
settanta
loser
##retti
##ves
poro
massime
cavalca
##tp
congiuntivi
petra
allegiant
ambulanti
dostoevskij
elicotteri
hemingway
litorale
oculista
camerieri
insensibile
terbaru
imperfetto
boeing
potró
sistemerà
disparte
distratti
abolita
abbonato
dentifricio
fiorellino
sfogarsi
affondo
musichetta
trasportare
opinionista
pulisco
rosanna
equa
ritwitto
##disco
passeggio
rory
sennó
ducale
candidare
regalarci
terminale
nervosi
minho
visuale
korea
estendere
##iall
##bike
ivi
##sing
sposate
faz
trovatemi
##nghi
respirando
##quello
bur
##tin
bun
pep
targhe
ciglio
caricata
ricominciano
tuono
##sun
##ggo
cicli
esiti
ruggeri
consulti
##arte
palloncino
calcutta
polaroid
tangentopoli
acconciatura
centimetro
citofono
sostenitore
kafka
orphan
viscardi
aumenterà
discapito
esposizioni
giaccherini
rotture
penseranno
allergico
raccomandazione
falciani
preavviso
romantiche
canterò
castano
creek
interfaccia
invecchiato
copriti
tinista
problems
appendo
inaugurale
omega
##ow
espressa
##tut
tiroide
checker
cantarla
anzia
umbra
nascerà
lasciava
vigente
italica
finoallafine
virna
fattelo
devasta
division
##vole
grad
##ione
stracci
perego
ipotizza
##sotto
pitch
azzurrini
##scono
serenata
tranquillizza
rimpiange
vennero
ivana
dlc
##pare
answer
ends
mastica
costituente
destiara
ingroia
rilievo
giocheremo
sufficienti
crociato
stupirsi
altamura
umiliazione
sindacalisti
veggente
pallamano
spacciatori
forbici
marmotta
successivamente
pizzaiolo
approviamo
ideologie
stancherò
criscito
spalare
##ario
fornitori
allontanarsi
host
barocco
complotti
nicky
muratori
##compaiono
nevra
informativo
polveri
registri
inspiration
rising
azionisti
booking
canoa
affidati
asal
medicinali
haahah
uccellino
##cro
perito
dere
bpm
ingrassa
amiki
compatta
##iaa
yaya
servivano
stalkera
motoria
meri
miri
rinco
##side
rosu
dimostriamo
vanna
lorena
contact
runners
accessi
mordere
omgg
completata
disservizi
##uf
sfuma
esordi
nze
rattrista
contenitore
democristiano
incomparable
sfinimento
yosemite
modugno
charlize
dislessico
clarence
elijah
ricrescita
panicucci
sepang
eruzione
autorevole
fraterno
ambasciatori
baluardo
sounds
distrarre
doverlo
materazzi
cambieremo
risollevare
anomalia
biancheria
vasi
esistenziale
cinture
tullio
cricca
convertito
crespi
costosa
cugine
rockstar
chupa
##liberalizzazione
sfilano
calata
rapinatori
farglielo
##niamo
ammira
venia
importare
bones
degl
assilla
trattando
copiate
pulp
brinda
saperla
sclerate
gpl
##pin
##qualcuno
volonta
ikut
eww
boicottare
verano
##ware
imba
preego
##rglielo
interrotta
orte
altr
piomba
avvertire
hermann
adesivi
grattacieli
inadeguato
madagascar
impotenza
abbiocco
lavoretto
antipatia
presupposto
royce
faccende
prenoto
unfollowarmi
rottamatore
tosel
strapparmi
melania
servisse
sequestrata
ripetermi
ketchup
calamita
provenienza
noterai
riportatemi
lodoo
abbracciarvi
turistiche
sibilia
commentatore
guasti
seperti
velina
zoff
klo
chiappa
basilea
vanni
dichiarano
morena
orazio
larena
debut
##vol
recuperando
vivevo
##chino
riderò
wide
batteri
bcm
dtt
gine
##cas
tat
riecco
avvicinato
fiorito
lil
elenca
leali
scopami
imbarazza
kara
coll
gamberi
splendere
xiv
webber
vicoli
antoni
electro
rifletti
bolognesi
donetsk
imperfezioni
jakarta
benzema
dhabi
lavandino
sanabria
omelia
impotente
gluten
zenzero
muller
spiritualità
##ccrediti
campanile
commesse
stemma
assaporare
bud
viziata
mantengono
zecca
bollino
successivi
realismo
vem
atterrato
sarti
romeno
scatenata
blabla
progettato
idols
pieghe
carrera
calmarmi
hype
mangiava
caleb
gaal
terrone
sierra
gradini
##ins
ditalia
##irens
intenti
##ute
romanews
sequestrate
##troppo
##linsonslaysagain
indici
##ncia
##cre
evvaii
lupin
graditi
lussu
golosi
kd
terzani
bentornati
chivasso
involtini
portugal
suggestiva
giuridico
tampil
pistoiese
auchan
manipolazione
cassonetto
equitazione
files
awkward
micidiale
ripropongo
pattinare
stronzetto
euroleague
nostalgici
annetto
vazquez
liquore
slancio
tenerissimo
sfottono
flaminio
granchè
incazzarsi
gnomo
giotto
rurale
##mate
##anto
maggica
aiutarli
warrior
cairoli
piedini
reader
awn
desde
informatici
scorri
votarlo
venticinque
raccomanda
lunghissimi
##tate
appendere
##mico
cardinali
subita
dirigere
esaltati
tornavo
updates
palate
langhe
successone
leggeva
chiacchiera
kami
fortune
##lè
##loo
ceto
cw
##spi
ottocento
##gera
zucche
pila
totali
sostenete
##ub
diminuisce
monologhi
rinvii
equazioni
coverciano
##ws
meneguzzi
atzei
website
confrontarsi
gorilla
oserei
casalingo
autoritaria
seminari
dentiera
scoppi
trattenermi
accontentati
procida
talpa
miliardario
giudicata
vivace
scompaiono
umanamente
cascano
##commissariamento
mediano
portaci
lenovo
tauro
rendeva
vaff
proc
augusta
##bl
tangente
ripa
diremo
marcelo
edison
sper
##avo
ending
##ggiano
tae
porc
interview
squilla
impa
sshh
blanc
ahahahhahah
stampanti
penti
manhattan
orsacchiotto
pistorius
smarriti
smeraldo
tolstoj
tfios
baccalà
immersa
piedistallo
esausta
harley
rimorsi
cognata
tifoserie
pubblicheremo
interverrà
prologo
smoking
inclusione
vegetale
lime
raccomandato
globalist
dominante
paragonato
ehilà
uccellini
augurarvi
trionfale
tristissimo
squadristi
##ong
imputato
zip
jaa
discount
ramos
brevetto
nemica
diciannove
scendiamo
isabel
cucinando
consigliata
rapa
giocati
mem
diffusi
perverso
cosca
appoggi
torrente
benito
cautela
guardarci
aida
laica
vige
valee
busi
telefonato
##mag
##tec
banti
##mane
##magazine
##siete
##sole
rinunci
giusi
doversi
recensio
monsignor
camice
microchip
##nco
intramontabile
sepolto
gianluigi
grease
cataldo
camilleri
vrij
interrogativo
adorazione
sportività
##hahahhahahahaha
cass
riomma
##rossi
risolviamo
combinare
hahaa
compravendita
##ret
ficco
mancanze
rifiutata
mistress
mangiarlo
ricevendo
pizzi
ciliegie
messia
pioverà
buo
##sel
##rola
visi
specula
##ttare
##fatti
##glie
timbro
intimi
decolla
metano
pora
wayne
##kenal
resmi
effect
moci
influenzato
cities
##dico
malo
pisani
##belli
##with
unicamente
##cultura
mantieni
combatto
intollerante
coinquilino
fesserie
demolizione
paraguay
ebreo
furlan
pentirò
secchio
##str
esibizionista
farmacista
socializzare
innovare
##tana
editoriali
telefonini
sveglierò
clamore
vines
contabile
bby
volterra
nominate
##vuoi
porello
tegola
fassa
tesserati
strappi
pensavate
logora
carbon
seriale
dovermi
belong
bastata
logic
smackk
rispondiamo
##cus
hf
blonde
gee
##hd
frati
vittore
poterle
chirico
bac
canticchia
pisano
populisti
confida
cinisello
contraddizione
xylella
distinzioni
indistintamente
guarderai
almanacco
costruttori
eterosessualità
struggente
studiamo
##dimenticare
masturbazione
heysel
rivalità
marlene
travolgente
pintus
mengonilive
chiarissimo
##vis
cortometraggio
acconto
capirla
negrita
forense
stringendosi
riprovare
tripoli
finiamola
esplosa
nobar
occorrono
ib
contagiosa
badare
ronde
desiderate
istagram
rispondetemi
vergata
nerone
oste
fermatevi
##stabilità
rail
sensate
importo
##tc
pall
excel
kra
causati
educa
agv
secsi
citati
quintana
##vel
ricredere
criss
facc
ridoo
scaricarlo
delizie
client
##contro
manchii
palpa
fratellone
##velino
##ggiare
##yn
azzera
titti
impieghi
cacciano
ombrelli
bastia
capsule
##rma
peloso
pocho
bambi
making
burundi
notariato
swansea
goleador
pettinatura
klimt
pappagallo
cafoni
sorrentina
trabzonspor
equivalente
dimagrito
coroncina
meriterebbero
chiamerei
superbike
pubblicherò
mici
calvario
orco
ripassato
rapunzel
bazar
impiegata
esultato
recitato
scopritelo
socialisti
migrazione
supportato
trovassi
guidando
learning
vid
efficienti
geme
bedda
blinda
ridotte
genia
pastori
toys
sprona
dipinge
##twitter
##ahahahahahahah
bellamy
pax
potro
##cò
presiden
abe
inquina
truccate
beast
ehmm
dimetto
pee
ventagli
esploso
soundcheck
pattinson
comitiva
atlante
grinch
feedly
followtrick
jumping
giampiero
riconoscenza
holding
dietrofront
enciclopedia
knicks
controller
scorci
analfabeta
esorcista
riciclare
tacciono
osceni
realista
paladina
accelerare
##logia
depilazione
volvo
fischiare
scarse
##voli
rapinato
okaka
rocio
manifestano
inail
vitello
raccontarmi
desse
cruz
homo
##fd
canova
laici
cercarla
wave
##nova
##gente
##hahahhahahahahah
##ree
##lica
kyle
##coli
spazzola
recap
conoscessi
ingegno
massoni
sportelli
fondamenta
sz
jfk
arrossendo
coriandoli
fannulloni
immancabile
indiscusso
sopravvento
indigestione
thoir
tessuti
impediscono
chiarisce
coltivazione
vorremo
sciamano
interdizione
quasimodo
freccero
##mino
tesla
tardelli
indignato
stupisci
bidoni
ilicic
adottata
##tè
esistito
coreana
explorer
fruti
mort
semplificare
chioma
oltraggio
bamba
##sien
melone
stringono
attraversato
giorn
uè
##mila
##fit
##amento
certifica
timo
##num
##rine
rem
danger
riuscirete
dolcino
infelicità
rider
mordicchia
##berg
##tm
##final
avvisate
abbr
yuri
nara
vigne
condannano
fabiola
constant
##cari
pianificato
handicap
alluvionati
esemplari
maresciallo
coniugi
monotono
deodorante
scomode
avvertimento
uncinetto
brunello
autistico
hackerato
naked
rifarsi
bunny
rehn
impallato
collaboratore
ingrediente
ridatemi
vedro
caldissimo
deviazione
palette
bertone
cordiali
filetto
##dire
ginger
maurito
pong
##retta
paci
novel
##caratterialmente
gump
fingers
menzionata
cart
stona
##setti
meritavi
##bon
santos
##tum
##ig
condivisi
ary
##dato
cdp
##lati
acquistando
fabiana
contadina
resuscita
ritrovate
minat
sissi
sabar
culona
defollowato
sostenga
##vv
algoritmo
digerito
estorsione
macelleria
eicma
aguero
scotch
condivisioni
richiami
binomio
documentazione
omofoba
sfruttato
parare
interattiva
completed
immigrate
somalia
dolorante
eguali
argentini
intervenuti
schifato
affacciati
gabinetto
mercanti
ritirarsi
avena
controvento
soffice
schizzo
medium
separata
tmh
gioioso
grafiche
bash
orgasmi
intona
colti
atei
velata
specialista
resistono
diventerebbe
dannoso
gioconda
diet
accusare
abbinate
iscrivo
cinquecento
arcade
mettessi
eppoi
addobbi
torcia
consult
deg
pedi
##mat
bai
assaggi
curti
vot
vitalità
gig
##ndoti
famme
antifa
kol
volver
spar
##today
muscolo
isolata
riprenda
cachi
spigolo
espelle
autonomo
entertainment
bertolacci
granarolo
gruppetto
prosperità
zucconi
prescritto
attilio
warner
autografata
yulin
parteciperò
rigenerazione
maggiorenni
abitazioni
vantarmi
sacrifica
giussani
desire
condizionatore
cecità
superamento
nascondermi
dash
civetta
bnotte
scadere
immane
rca
destinate
germano
classiche
mandarla
schifa
##nari
gaudio
marcire
##ole
spostano
smash
costui
definiti
confondono
sigo
##nina
telegiornali
fotta
##btw
dispone
mhn
cinica
massacra
delila
assolve
ammala
montati
separato
accessorio
zerbi
mental
xtra
##ise
ward
##spo
cnr
salutino
##forte
##ries
##mone
esisterà
picche
valentini
fauna
immune
inquietudine
scaduta
competition
friulano
lucchetto
tropea
madiba
intoccabili
proporzione
prestigioso
supermario
divario
birsa
specialistica
monastero
disattivare
adriatica
toloi
##parte
garros
bosio
avvisami
augurarti
indicazione
identifica
tirati
concittadini
xxl
kappa
gestori
stellinate
civici
pagarlo
madó
jfb
##ary
##italiano
fumate
occulta
rubio
stellari
##sl
abolite
diventasse
amavi
mua
##vola
esistessero
diem
tod
jajaj
devozione
vigor
mariah
iniziasse
cer
motiva
##hahaha
maggie
fairy
arm
flirt
[...]
